/**
  ******************************************************************************
  * @file    network_data.c
  * @author  AST Embedded Analytics Research Platform
  * @date    2026-06-10T22:19:20+0800
  * @brief   AI Tool Automatic Code Generator for Embedded NN computing
  ******************************************************************************
  * Copyright (c) 2026 STMicroelectronics.
  * All rights reserved.
  *
  * This software is licensed under terms that can be found in the LICENSE file
  * in the root directory of this software component.
  * If no LICENSE file comes with this software, it is provided AS-IS.
  ******************************************************************************
  */

#include "network_data.h"
STAI_ALIGNED(8)
const uint64_t g_network_weights_array[6654] = {
  0xea27b93632f84701U, 0xe9e81757477ff53eU, 0x3a3814f205bf2cb9U, 0xaf5322cfc0c8a41fU,
  0x3a58e7c1bdd3ba40U, 0x3d14cbfe1d18811dU, 0xe183dfd9042a2758U, 0x21a722e331ce9a46U,
  0xdb13dce822cf813aU, 0xf21c5af82de97cc8U, 0x922b6aaf8107f0c4U, 0xdffbdfe3f12df637U,
  0x300339c4cf011e50U, 0x42a339f338f50a33U, 0xd81aa627d2e88ee9U, 0xd3cefc8136361456U,
  0xdede08c636ecfe02U, 0xe8e284cfdcd3dd38U, 0x4998e0da6f9f154fU, 0x81af9fe00dbe0a51U,
  0x6a0f6f717c2bbd6U, 0xedec1afda37fdb5bU, 0xeeac82d3be5fc05U, 0xd0e52ee9135afd29U,
  0x1bdae62c22f9cbf1U, 0x6e990bef1e427ffcU, 0x1ef7f3fa2602f602U, 0xdebe3c1fe1186b7fU,
  0xf710178fe8144324U, 0xdc1328263aafac8fU, 0xb8fbdbf443d3cd02U, 0xe68da81f4ba22f8U,
  0xb1ef4d9ab2cf3dfU, 0x43841b927fbccf1U, 0x8d0f010093fbc445U, 0xedfe27e9efef1921U,
  0xe4fbd9ce810715f1U, 0x3d00b7d70b87dbf5U, 0xa9e2b55b1437af89U, 0xa8eb26cfc1a23709U,
  0xe42f4c6a813d8722U, 0xfbe72af6f02baad2U, 0x2ce1ec21f229c035U, 0x7d014e5f7189267fU,
  0x7f356c2933bfbf93U, 0xad0cc22b2141e318U, 0x395de2bff8005cc4U, 0xf015f24a402d79bU,
  0x8c192629d15a1a2fU, 0xad750c01813f18b5U, 0x46695dfbaedd14cfU, 0x2f07d0d9166ab7f0U,
  0xdee5efe6f1d181f1U, 0x2ef5083f10cb0820U, 0x200000002U, 0x200000003U,
  0x200000003U, 0x200000002U, 0x200000002U, 0x300000001U,
  0x200000002U, 0x200000002U, 0xb40f9f3ed301a421U, 0x7f12f81fc5194e55U,
  0x2c61d514de311bcU, 0x7f3bf28f15ed35daU, 0x7ff54dc41ad03de7U, 0x33ab2aa6e82f8219U,
  0x15395b04daec7fe5U, 0x4d214cff3211ae5bU, 0xf7c92a1d2d561d46U, 0xf70120398104f8daU,
  0x71c458fd4dbe7fe6U, 0xd59aeb18f05fb50dU, 0x3de3d7bedf81ea59U, 0xc4f3bff0030ee50aU,
  0x1330cdfe52469704U, 0xd8b54f54f91c81beU, 0xc4ca09b000739bf3U, 0xfc5a81502b08cde2U,
  0xe9083692dbaa416fU, 0x20362a05023b5681U, 0x1e0b29327eae811bU, 0x7f1af42dc36defcbU,
  0xb61f46dc17e9773cU, 0x17d28ad2317fe441U, 0xd030a81e8f80c36U, 0x29e1f9cf1a4226f4U,
  0xe9c6e9d1ea284d14U, 0x18afbede1ed08124U, 0x15d91e2a7fdf0d29U, 0xf2e9ce021b671239U,
  0xe77fb5f13cdc22dfU, 0x43c88c7d15c685eeU, 0x200000002U, 0x200000003U,
  0x300000002U, 0x300000002U, 0x300000002U, 0x300000004U,
  0x200000002U, 0x300000002U, 0xb210f85a5ca9aceU, 0x81b37cb535a7f806U,
  0x14fd12d77f20ea26U, 0x9313fae01ad54209U, 0x22a3de50d62eebd8U, 0x7fbe357c7a92d1d8U,
  0xf3caf4107f2f2e37U, 0x1df31120fbfefd03U, 0x107fd22c130ee3f6U, 0x31ec10f7d5c94ebfU,
  0x9d28e0c7ea3d3ecbU, 0xbd81cafc14c2ee1bU, 0x7713905e3a54081U, 0x44219ef615551478U,
  0xf7e91281024aca20U, 0x83a10edb6589a50eU, 0xf908ec4520044dc3U, 0xb881a4380043e69dU,
  0x7f3de93104c53dc8U, 0xd6c5d65ef2b29e2aU, 0x8141dc936608d0ffU, 0x35cbc1ab0750bee3U,
  0x7f239b7f3fe6ea92U, 0x3d1b2a4c92162f9fU, 0x70000000fU, 0x70000000cU,
  0x70000000aU, 0xc0000000aU, 0x800000007U, 0xb0000000aU,
  0x1efcc13418fe0081U, 0xd66946f53207a77fU, 0x291cd024ddbb32d8U, 0xcbc636d47aa016f4U,
  0x7937f3edaecccbccU, 0x1aee2ad10ddfe59eU, 0xdf81c4f013e1173fU, 0x31511e6f3f210beU,
  0x1c04da0f0618fd2dU, 0x81bbfd7f30d9eadcU, 0x9b208128e5e4ffcbU, 0x2f273130ff5ccd4aU,
  0xf0946c3f7860bdbU, 0xe6ceeffffa03e403U, 0xf1c329bd70e1446fU, 0x75c2b30629e8e7dbU,
  0xbc5c9d9eef83fU, 0x3dcd7e826e28fc0U, 0x1429b41d1b511412U, 0x36244fcdd6e0a8feU,
  0xe12a17e80d048114U, 0x75c2e9f5fd713d4cU, 0xcb715fc04b72ed5U, 0x1735b5cd49e6da00U,
  0x41f3bd40d681ead4U, 0xc92f05e411ec00f1U, 0x81360e165bfeca9eU, 0xfee2389481f5c70aU,
  0xdefeaed70fae99ffU, 0xdf5eeecaf914b5b9U, 0xece231cf5325ee40U, 0x97d6c630dc7ff100U,
  0x4daedcf9e7361855U, 0x1816ecd5cf0bb84bU, 0xc535482fe3c3561dU, 0xadf6812a171603f2U,
  0xfbee0644d4f2b53bU, 0x4d6a863deU, 0x500000006U, 0x500000005U,
  0x600000009U, 0x500000001U, 0x600000007U, 0xc06423700000005U,
  0xa1e50bc97f3da4abU, 0xe77f21e24adb0706U, 0xbda1f393990fa23U, 0x32811a5537c71206U,
  0xbd68d1148164c8ceU, 0x552d49e4f708da10U, 0x6e56c45158fc7f91U, 0x4a7f2b8853026ccdU,
  0x8b8121c906327225U, 0xa6bf505d52003720U, 0x21d4152d250c8111U, 0x2c0046812e16ed1aU,
  0x6718200fcd2f2929U, 0x75f9e147d82049adU, 0xe541548cdc7f54e0U, 0xed2c327f05dc0b59U,
  0xfe30ddb80d64187fU, 0x83bfee51aU, 0x800000007U, 0xc00000008U,
  0xc00000010U, 0x600000008U, 0xa00000009U, 0x502600ed0000000aU,
  0x2c80442bcddbf34U, 0x87ff53dd0822ea05U, 0xab48d10482b1efd0U, 0x490bd2d207edb00fU,
  0x5f43f4b7d202debaU, 0x101e7bcaba81ed1aU, 0x104098dd0df6d303U, 0x2e2a16fc23c730c1U,
  0x8b439403ecda1ed5U, 0x8108127266031feU, 0xcf0e5c36f22ba385U, 0xe7b1dcadd5c843eeU,
  0x255f421efed4c26U, 0x8769fc6035b0de2cU, 0x68c7812f00f501d1U, 0xdde5017fc2f0f408U,
  0xddf313f230ae503aU, 0xd1051beeb6db33f3U, 0x8ec2aff0f5c71493U, 0x896b10a3dec10eeU,
  0x5e3733170cf4f9faU, 0xd02a0caac4efaefU, 0x3e2197bc64d42c9U, 0xb9e5e21820f63219U,
  0xeac11205f3cef937U, 0x83c2f933bc20e643U, 0xe981121cb88181bfU, 0x6c191504f2f7ec19U,
  0x53f54ae4e902e804U, 0xa87faff5df11d9d0U, 0x260408040b25cb69U, 0x13fbce657f067f7fU,
  0x1c55e6dfebe10ffdU, 0x2155d00ec10ee0e8U, 0xc4507e088133cdeeU, 0xfe0cf6111443ddceU,
  0x50ef3fd91af2c5aeU, 0x81f6d00d4ed4d32bU, 0xfd1dfc29d6eac800U, 0xaf171807f631f91eU,
  0x54ce160fe51cf6adU, 0x2be1e9cb2401e427U, 0x670a7bc367e109bcU, 0xbbeddbe3dbdf1048U,
  0x7fdb7d0114f6f581U, 0xed02bdef4ccef60eU, 0xf2581c8146f5e743U, 0x34d2ecfde6fb1ebeU,
  0xbbfff0d977da16f9U, 0xe9bf2a05U, 0x1U, 0x100000001U,
  0x100000001U, 0x1U, 0x0U, 0x0U,
  0x100000000U, 0x719540f900000000U, 0xbb0f3f44c5137ff7U, 0x37d9d92f28b30a28U,
  0xec7f482427c7cc66U, 0x4de6cf0112f725f1U, 0x8418ddd4aac1cabbU, 0x2cd30e2428e77f49U,
  0x77c2b999d9057f7dU, 0x32170b81ad98f526U, 0xcc12ec09a4565041U, 0xb8ad84850c75e440U,
  0x2bcb5d18d086cb4bU, 0xb228360b827ff750U, 0x5e0952400e68106U, 0x25539d021748f7efU,
  0xcbfc810cfaf6fac0U, 0xef01f2fc743902d1U, 0xe6f9b33c2516294eU, 0x358ac3222dfc81c4U,
  0x75c9f981ef1c2734U, 0xba0acf2e5c952fa6U, 0x501de576ee0c0d73U, 0x97f0f0a34c93981U,
  0x91c88dd5e4c71a07U, 0x350fed5c7U, 0x16fffffffaU, 0xfffffffc00000006U,
  0x500000010U, 0x800000012U, 0xfffffffe0000000fU, 0x200000015U,
  0x10fffffffbU, 0xfffffffd00000005U, 0x40000000cU, 0x60000000eU,
  0xffffffff0000000cU, 0x200000010U, 0x11fffffffbU, 0xfffffffd00000005U,
  0x40000000dU, 0x60000000eU, 0xffffffff0000000cU, 0x200000011U,
  0x10fffffffbU, 0xfffffffd00000004U, 0x40000000cU, 0x60000000dU,
  0xffffffff0000000bU, 0x20000000fU, 0xefffffffcU, 0xfffffffe00000004U,
  0x30000000aU, 0x50000000cU, 0xffffffff0000000aU, 0x20000000eU,
  0x10fffffffbU, 0xfffffffd00000004U, 0x40000000cU, 0x60000000dU,
  0xffffffff0000000bU, 0x20000000fU, 0x11fffffffbU, 0xfffffffd00000005U,
  0x40000000cU, 0x60000000eU, 0xffffffff0000000cU, 0x200000010U,
  0x12fffffffbU, 0xfffffffd00000005U, 0x40000000dU, 0x60000000fU,
  0xffffffff0000000cU, 0x200000011U, 0x12fffffffbU, 0xfffffffd00000005U,
  0x40000000dU, 0x60000000fU, 0xffffffff0000000cU, 0x200000011U,
  0xcfffffffcU, 0xfffffffe00000003U, 0x300000009U, 0x40000000aU,
  0xffffffff00000009U, 0x20000000cU, 0xffffffffbU, 0xfffffffd00000004U,
  0x30000000bU, 0x50000000dU, 0xffffffff0000000bU, 0x20000000fU,
  0x10fffffffbU, 0xfffffffd00000004U, 0x40000000cU, 0x60000000dU,
  0xffffffff0000000bU, 0x300000010U, 0x13fffffffaU, 0xfffffffd00000005U,
  0x40000000eU, 0x700000010U, 0xfffffffe0000000dU, 0x200000013U,
  0x11fffffffbU, 0xfffffffd00000005U, 0x40000000dU, 0x60000000eU,
  0xffffffff0000000cU, 0x200000011U, 0xffffffffbU, 0xfffffffd00000004U,
  0x30000000bU, 0x50000000dU, 0xffffffff0000000bU, 0x20000000fU,
  0xffffffffbU, 0xfffffffd00000004U, 0x30000000bU, 0x50000000dU,
  0xffffffff0000000bU, 0x20000000fU, 0xefffffffcU, 0xfffffffe00000004U,
  0x30000000aU, 0x50000000bU, 0xffffffff0000000aU, 0x30000000dU,
  0x13fffffffaU, 0xfffffffd00000005U, 0x40000000eU, 0x700000010U,
  0xfffffffe0000000dU, 0x200000012U, 0xefffffffcU, 0xfffffffe00000004U,
  0x30000000bU, 0x50000000cU, 0xffffffff0000000aU, 0x20000000eU,
  0xdfffffffcU, 0xfffffffe00000004U, 0x30000000aU, 0x50000000bU,
  0xffffffff00000009U, 0x30000000dU, 0x13fffffffaU, 0xfffffffd00000005U,
  0x40000000eU, 0x70000000fU, 0xfffffffe0000000dU, 0x200000012U,
  0x11fffffffbU, 0xfffffffd00000005U, 0x40000000dU, 0x60000000eU,
  0xffffffff0000000cU, 0x200000010U, 0xffffffffbU, 0xfffffffd00000004U,
  0x30000000bU, 0x50000000dU, 0xffffffff0000000bU, 0x20000000fU,
  0xffffffffbU, 0xfffffffd00000004U, 0x30000000bU, 0x50000000dU,
  0xffffffff0000000bU, 0x25310a160000000fU, 0x341a7fb4b7e80a4fU, 0x7708f1fc24034e73U,
  0xe624b3350903e806U, 0xc81919e1ceec7f19U, 0x9c3fd2a71a3ccdd4U, 0xf00af69108d787dbU,
  0x64bc47e5bd28fc17U, 0xca0d811f42309f7aU, 0xb9f9e5f2b256b52cU, 0x4dc2bc3bca001fe6U,
  0x1433101900141ee8U, 0xca37dbab09e90c81U, 0x301629337fcbfdccU, 0x43cc10fbbbf0259aU,
  0xd3e8ee5083124600U, 0x1181f54038e9ca21U, 0xfcbff639dd132fdbU, 0x6101ce7cf10c6cbU,
  0x44bcaecfe4ef4861U, 0x363150f0c81b0981U, 0x2a7ed67f2ddd4133U, 0x2f1304e1a19cc50eU,
  0x1135dbeed44513feU, 0xd6e24ff73b2ca0dcU, 0xa5cd28977f7086fcU, 0x40fd10064338c12eU,
  0xa5e6ceaa280425c2U, 0xe52e34fe7024e4f5U, 0x3ea5ee00ea7ff21cU, 0xb8e5fce4fc12ecd4U,
  0xebb3a0e20da71e05U, 0x6057f21f3c3103bU, 0xec489ad3c2190001U, 0x18f8c2a6dbf4f0b3U,
  0x161dd4e30117e281U, 0xfffff70225141a41U, 0x13800000596U, 0xae0000022cU,
  0xfffffaf6000003d1U, 0xfffffea200000075U, 0x3c5000000ebU, 0x45e6c41a00000636U,
  0x9e23265dc8f9d581U, 0x7a4dd518efaf29e4U, 0xf450d61135e012b2U, 0x1094f2f22ade0ef6U,
  0x31fefad12a078110U, 0x6d6f5ccf0be80ba8U, 0xe0e6e72aaa29ca17U, 0x2dbf204234c5d340U,
  0x58c7a7313121147fU, 0xf99b075128373397U, 0x4087b87fdc3a9c14U, 0xf2e50c08133382d3U,
  0x167d81ec0746ead1U, 0xd7aa859b3622edf3U, 0x28100f242b296a75U, 0xe2dbf22136040181U,
  0x3917c51e04b8d51dU, 0x60391557ba3817eeU, 0xea2bff090dc6aa0dU, 0x9381f6b5c1b543fcU,
  0x3b2dc9393957d0f0U, 0xc57fd00a24dedcf7U, 0x26dd0970d60b2692U, 0xfdfa19e507271709U,
  0xd0e5810feff90d1aU, 0x267f42a108840b4U, 0x2132ecffdf5f2e30U, 0x10b40bf1e0e70a18U,
  0xdddf419f6031015U, 0x283cedef15c881f6U, 0x81d50c3dfdfedcdfU, 0xf32f4c36d1d332b6U,
  0x4d2b531b24b80932U, 0x7f1fdfd04655f439U, 0x262ff433120ff8a1U, 0x3c2072b4144U,
  0xfffff98a000002b8U, 0x106000002d0U, 0x2cc00000245U, 0xf6fffffe68U,
  0x19500000294U, 0x42ce1c0fffff323U, 0xf56cb0e4ebd5810eU, 0xf4e9b1d8f032e60fU,
  0xc023c64a730ab9f2U, 0xf33219db293a2aceU, 0xab2cae2946d013b1U, 0xf8ef81cb52c75fe6U,
  0xc008940906fe6f24U, 0xf01704ce361114ccU, 0x1901bdc5023cfc67U, 0x30792a01a5e45458U,
  0x4b08332eed4df502U, 0x5fee0d9c8f955c6U, 0xd38edb0c1d2ed8baU, 0xb87f2dfc078112b1U,
  0xd7f5def7f85151eeU, 0x96b9fa32be3d11edU, 0x702518e2b515f812U, 0x8c00eaf026d63c47U,
  0x2f7ff4d0b1380fe2U, 0xe2efb63051dd1c0cU, 0xd0141127d32febb3U, 0x292481fd20cb9f18U,
  0x6debc3227fbbeeebU, 0x61c2f11d81b7307fU, 0x16620a150637f140U, 0xcde928cf1eef2f61U,
  0xcb05f16720b494e1U, 0xcc352cfc81ed9f81U, 0x22f143d018d22cf4U, 0xb42ce27fc71721a8U,
  0xf0d6ec07c93f0aa9U, 0xe408d40523eee9d7U, 0x969ec5e2374ac8fcU, 0xf40a42431841bfeaU,
  0x84fddcd3aec2be5U, 0xe9b7ee1af7e3436cU, 0xe61318026e1623d6U, 0x2fbe0000119aU,
  0xb9800001fd8U, 0x1bef000022d5U, 0x166cffffd65bU, 0xfffffcbcfffff2d3U,
  0xda8ffffdabbU, 0x1dc8fde328458ec5U, 0xe9fef77f06815657U, 0xecfe0d06c6351c0dU,
  0xf2d2b1003227d630U, 0xf517e87fef0f7fd0U, 0xdaf6107202fbe3aeU, 0xc51b26352afc5281U,
  0x13d239cfca032230U, 0xdb2c0facd7810f49U, 0x6ed839bfb155813cU, 0x33812945c3cdb0b0U,
  0x7e972e66e93112eU, 0xe6bb224031c53881U, 0x7f221c82d1f9e224U, 0xaedef0fbc626e82bU,
  0xe636f176b01481e1U, 0xd41e44383011b4d8U, 0xb197290a81f86b49U, 0xe00000014U,
  0x170000000eU, 0xf00000011U, 0x1b00000017U, 0x1900000018U,
  0x1700000015U, 0xec2e9a1cd0eba8caU, 0x7af881e409273429U, 0x23023f6fc6334f3cU,
  0xb8329d3f325e6b0bU, 0x2ed63887f68ede14U, 0xadcf4dfa2c08af81U, 0x13c281e2e10923f6U,
  0xc045eb06eafe1c29U, 0xfd37fef6f06401fcU, 0xfd24fffd7610ae26U, 0xbf4645eadf12725bU,
  0x687fa5fdde2ba7e3U, 0x14d562fb128123caU, 0x2eae051b40d9efe6U, 0xb227ee123505b4f9U,
  0xca0435e97f64fdb9U, 0xeb061bfda8af5388U, 0xcd53529ab122c1a7U, 0x5b0911f7e8642ef9U,
  0x2e455d7e87f678cU, 0xafe4c20be53eea88U, 0x4d35c9281e164510U, 0xe1c5c80956af5cbaU,
  0x7faed38f2643230bU, 0xd03038106ebf2ecU, 0x23f888c6f9dd38f3U, 0x271489f661cada0dU,
  0xe297d823d8fb2417U, 0x2f7f0ff6e1e9f6dfU, 0x25adeff818281340U, 0xb6d22fe6ccd218fbU,
  0x143c98134fedf06U, 0x90eebd2f7d9b143U, 0x21e2d60425b8f6f4U, 0xf6f9ad81111bfa62U,
  0x3401f8c9d8f516c9U, 0xa90b23373f070981U, 0xf422e914e1d20b00U, 0x6d117c642aae82eU,
  0x5b2eb6a31c1d4312U, 0xbd0158ecfa11cafaU, 0x80bde4b7f205df0U, 0xa6f4f0e52004fad9U,
  0x92c2e4620f9c2f7U, 0x3a2e2a3581ebbf1cU, 0xd1c9a2eb3001d37fU, 0x6021c90b66808c1U,
  0x145ee03f1c181d7bU, 0x25bf817f2b50800U, 0xbed1ef180a3645e1U, 0xf9814de418dc8b22U,
  0x40331f313237c55fU, 0x2d3fc6d28e812b36U, 0xd10504d2f8e8ac49U, 0xbe3da1112c9ed03U,
  0xfc049708fc208132U, 0xf709f52bcc2339efU, 0x44eeef7fb3c3df1aU, 0xbe65410290e03e8U,
  0x23d75feca62bcdfdU, 0xfa810f3454f3c1e1U, 0x7eed261144072becU, 0xd47d4133c6de2d1dU,
  0xcdf19e39e83b1cc6U, 0x10d5aa852e61cd3U, 0x3781825d19ced13aU, 0xf63af1d5e458d32fU,
  0xc9fdd8f46e7f2d61U, 0x3643f2084bbec908U, 0xd8c2de0ee257b9f0U, 0x23d344aeae4812aU,
  0xf4d6280fe5b54e0dU, 0x16efffffe7dcU, 0xffffb6dd00000e07U, 0x338a00001e9fU,
  0xffffd1c8ffffe797U, 0xfffffd420000567dU, 0x4acc00005d5eU, 0xffffa91c000025d0U,
  0xffffdedd000005a5U, 0xfffff3f20000262dU, 0xffffe7b000003205U, 0x1955ffffb426U,
  0x1480ffffac24U, 0x260192ca00182824U, 0x211bfb88d60c81e8U, 0x1b08f6acbff3c7d2U,
  0x228df5cb0e3020baU, 0xd7e1153e813dd3fbU, 0xf406ea8e190cd217U, 0x1229ede7364dd4f5U,
  0xfe224dd0c129715aU, 0x1fdaeb0f2e7ff01dU, 0xd229d6880ee7d5fcU, 0x600f0c98409af9b5U,
  0x9210a81f4ad08150U, 0x458d35e00ef2f57fU, 0x12fdd0f1d8f3f912U, 0x6554e79405dc1c53U,
  0xf32e4d4b81f2f924U, 0xe8814cbc4ddc452dU, 0x6da1b0f86214a0aU, 0xf11bd248fbe304f3U,
  0xcec08114f969450bU, 0xf2a94a2e2baef517U, 0xe20081dd512d3327U, 0x2d21f804d38ff367U,
  0xff30c5f6740361ecU, 0x1f16c1a00fcbcdc3U, 0xb3373c46f11d327fU, 0x15011ff3b00fc36U,
  0xbe764f0c57eb99cdU, 0xce341181133a47d8U, 0x34ebb7f9f00b9b65U, 0xe59bdc0733ec0e5aU,
  0xdf4cbbdf0d9cffb8U, 0x3381772ef04469caU, 0x2e3c7fe2ae2df900U, 0xda1a852a514a3c30U,
  0xc961f453350ecd4bU, 0xbec4c6597f990aceU, 0xeab8f6e7cf1c3a56U, 0x4c1767f2fbd0faf5U,
  0x2ae1bd47c8166112U, 0xb84e598163e4681cU, 0x6d5bc65b16fb7a5U, 0x81ecb6cd0f06f3dfU,
  0xc1f11cdbc72ff609U, 0x18102fbde2f50ef8U, 0xfad0bbfcb1dfddbcU, 0x85e707e61f1342ddU,
  0xb406d53d90dcba7fU, 0xb0e7f581dbf71cf1U, 0x4ffe24e10ff914eeU, 0xf9e8251a1a38f698U,
  0x24fbd381172c1d27U, 0x1d2c423e7ed4141dU, 0x21085bf1d9c6793fU, 0xf6362ee9ee0604abU,
  0xf143d31604194fbaU, 0x7f110415db0f0a02U, 0x32ecf600f3810e00U, 0xf8f9cf2007c047f9U,
  0xfb6df130daafba09U, 0xf200fc8117e84fc0U, 0xf3fabb120f212439U, 0x6d9fab0161fa9d2U,
  0x4a3e2be481de1cceU, 0xb1b70a1464419931U, 0xfc0afe018d2c306aU, 0x1f81d2e4c29663bdU,
  0xfd1b4930401bbbdcU, 0x4fb5f302011d0f14U, 0x161a2f147f3b2ff4U, 0x76150de511db1b5fU,
  0xa8ed0bf402e9ef2eU, 0x49d400006c3aU, 0x6ed8ffff9a5dU, 0xffffe71dffffe558U,
  0xffffcbab00000eecU, 0x1679ffffd8e8U, 0xffff958d0000125aU, 0xffffddf4000003c9U,
  0x813300005de2U, 0xffff88db0000299fU, 0x275bffffdf61U, 0xfffff95d0000408fU,
  0xffff981900001aa4U, 0x812423a9bdf1cf1eU, 0x81c47fbe31c0c4ddU, 0x56ed8c524c068c3U,
  0xfdca7ecf6ec1e5f7U, 0xc45057fba8012f12U, 0x81e6aeb009fbd30dU, 0xeff61cf1ea85eb58U,
  0xe5ea3b26ee0ae02fU, 0x719f81ae120be5f8U, 0x490876d319b57ff4U, 0x21e03c1522ffc344U,
  0x4481cb14e3e4271cU, 0x4c2060497fb8e87fU, 0xb7fb7af1787f8185U, 0xdfa673f21004463fU,
  0x32fc4f343024456U, 0x2907e581483718e1U, 0x45ae4c25049edf3cU, 0x32247f7fbd7fbb8bU,
  0x1dd607157f878c5aU, 0xe58c44407f8f817fU, 0xf281fdcd17f25aeaU, 0xf081a2a566840edcU,
  0x18bac181d71221b3U, 0xe976b3ee1a3104bdU, 0xcbfc74d921d0da81U, 0x861dcec92781bb05U,
  0xffff58abffff5507U, 0xfffe7b6b00010570U, 0xfffe3b6c00006620U, 0xffffdbffffff7a46U,
  0x180360000e945U, 0xfffd746c0000d16eU, 0xfffd3a2400014d76U, 0x18367000140f4U,
  0x441dffff168cU, 0xffff566400017abbU, 0xd6e200012dc4U, 0xffffffca0002ca98U,
  0x987f28ccdaed1869U, 0x544f11d2f20b5521U, 0x34c7e11c3154e2e8U, 0x340bdca7a082f454U,
  0x6aab818bbae6233bU, 0xda97f0b41c6eef0fU, 0xc49318efe9d1ef9cU, 0x9e2268103b2121bU,
  0xe6ccd66fe3e41ff7U, 0x426dbd09041fd2aU, 0xf0aa6ed8005ec7dcU, 0xdae4818ec6cf74ccU,
  0xc7180c1f0f1ae416U, 0x33eff6cfd6db322dU, 0x193f2cfac07fcb06U, 0x14981af9f20efd0U,
  0x335f05edf1d1ce9U, 0x31e00f1fd8482fc8U, 0x7119eb35b84a23ceU, 0xb37a714b128ee30U,
  0xa81165a27f140efU, 0x81d3e307ecfcf601U, 0xd71b3b5e34ffeb12U, 0x393c0e27b11cc5ceU,
  0x2e09fb21d4be55e2U, 0xd70010813bd307ebU, 0x1d30366bc41efb03U, 0xdf3dd1b6261d7fe7U,
  0xceb56329f513c1c0U, 0x48ed144e5712eb1eU, 0x40d1411e22c34d0dU, 0xe1d5aa4bedccad7fU,
  0xeff6c32c4040e9edU, 0x4b2172bf84b9215bU, 0x6af5fa5057d17f0bU, 0x5b77e0c8dac534b8U,
  0xe43be6d24731fa81U, 0x1f201fdcedcde610U, 0x2fe802ce24e615abU, 0x9ae662c6127f5a85U,
  0x30e17cfeb99a910fU, 0xaea8e248f808d74aU, 0x16da73cc34fdd828U, 0xeef9813b34bce818U,
  0x1ca1e1b4c3b00f1U, 0xf87f5c20c5bdd81eU, 0x2531d91d5be9d82bU, 0x21e62f0b71c94d23U,
  0xdd278114b1d066e8U, 0x62360f41140f15c3U, 0x4427d01ee6dccae0U, 0xc473f7fffbd29d87U,
  0x94100325c88103a8U, 0x1577083091df502bU, 0x2b27ffe4d733d4d9U, 0x1e1d7f67d7ff82fdU,
  0xeb4ddfdd0e1220e2U, 0xc8d0baee4935cae3U, 0xf609fb211c1fc24aU, 0x3e330e593be24881U,
  0x36e1d5d325721caaU, 0xbdfae8861afd37ecU, 0x7ff2df15f9992947U, 0x282f2ccc2cf4274dU,
  0xf0d80b8109e41126U, 0x66e20eecc9e22015U, 0x1f15f7efd4f3f533U, 0xf401fe180d0651bbU,
  0x45a102b5b07c481U, 0xf8f207e081fdfe21U, 0x1729d8ec3f57d5daU, 0xde3af94d142cf9efU,
  0x830000006aU, 0x6f0000005aU, 0x6200000050U, 0x5d0000005cU,
  0x6900000049U, 0x8700000062U, 0xa100000045U, 0x770000006aU,
  0x7400000046U, 0x620000004bU, 0x4800000068U, 0x3f0000004cU,
  0x38d805ebdccf54f8U, 0x3ff9f12de1f58128U, 0x9b90611edff170eU, 0x1711fb24d19210c4U,
  0xaecaebfc1ffce4baU, 0xd80f0af10bd4dfdcU, 0xbff92cecf9c6fcefU, 0x7fcedfdc193eb769U,
  0x62cfbff23e6f4bdU, 0xdac201dd0d46d4e7U, 0xdb91da28aab74305U, 0x450ee2e2b5dce0ccU,
  0xcb7b593b8dba843bU, 0x4835f3fa407ff0a9U, 0xfc1577e332f7d10aU, 0xe7c7b822a7ffffe5U,
  0xce34cdb006402b10U, 0xe20bc3fd251555f9U, 0xca52bada15284ff7U, 0x29c2da2539429552U,
  0x741fac89c972906U, 0xf40b27f3f99f5fc2U, 0xef10f93d2820520eU, 0xf82be527ab1d8a7fU,
  0x23cd20ecf2054d5fU, 0x8f1c505ecff605e1U, 0xfa0b1e33f201f05aU, 0xcff2f80dd37011e9U,
  0x1210d8f517e61a04U, 0x1f7fce1e0a243934U, 0xbfb245d2dd05e4a7U, 0x193a1db4c3ee42e8U,
  0xd2060252e10d15e5U, 0x4f95b0e0b43f14cU, 0xcd3906c37f05f4f5U, 0xa9e11370134ee16U,
  0xc8aa21315251e3c9U, 0x12f7c66eb8d391fcU, 0xc1f6f561c9e02ce6U, 0xe4cc290c12ebc87cU,
  0x1ad1e7c67f190f22U, 0xac0de60014da59dfU, 0x5c0c0b4244e23cf1U, 0x1d43154ee4c49dc2U,
  0x51b7af4532c2961eU, 0x1cfef6c00f0d2e01U, 0xf1ece7e0f8b1f9f2U, 0x3b3120e1c0f7fd1U,
  0x36c3eeb760691ef7U, 0x18fe28111204024bU, 0xe923b00e1a2da2d5U, 0xfa037f200bf13210U,
  0xb8f2000abdde56e8U, 0x7b93f041263abfc7U, 0xe35af6203b15c020U, 0xf1d481ef1130abdU,
  0x28026cb13fe2ddf6U, 0xf3ea457f35e5cf2cU, 0xc41fd8fef72c0ff0U, 0xc0d1240c5162bf6U,
  0xd0f5e571d7fa240dU, 0x21ea0343ec2f1feaU, 0xcb9e188116a4f022U, 0x51224323292307c6U,
  0xa22409133e2f1373U, 0x580301eed01f1344U, 0xb107ebe72552d31cU, 0xf2fdf0ffa4654729U,
  0x7f940dba06eefe38U, 0x122820e7340b26b1U, 0x627020848e2291bU, 0x7df20ea73f9fc14U,
  0x50db1613df1046caU, 0xe1393a1612f4cd56U, 0x2ef57f20e6590402U, 0x1160441dceef538U,
  0xe444ce9102d1140aU, 0xfdf6fa38f8290deaU, 0xfbe74cf6278bfbf4U, 0xfe0afb45401bb75dU,
  0xadee28e90b4c0a02U, 0xc8f981330c02ec09U, 0xc80d78aed5efd9e1U, 0xcbc64adbe999def3U,
  0x5b1312ce02fcc8d7U, 0xe9161f44bbfbeaf1U, 0x8c9e40cc99ec2a7U, 0xd4e8bceac4061cf8U,
  0xdf33d6460a0dfcb9U, 0xe15bf92ec181c5e0U, 0x99f94548d5392735U, 0xddfbfb2fef0dfd1cU,
  0x282915bd30dadce6U, 0x92ef412987f30f8U, 0xefb7c42cfdd34a2cU, 0xdfb21ad7b80eea04U,
  0x5ffbdeeedaa65d6U, 0x1aa2e6ad30e47fU, 0xe7e3113923002c57U, 0xb19820dee9f10952U,
  0x3d514cf271407dbU, 0xb40e3c38f663f6e8U, 0xf7410bfc1fc97f4aU, 0xe9fede6768f72ffeU,
  0xf40af724e5f19d3bU, 0xf0db41f2d211f9ebU, 0xec2ac3a603f943b2U, 0x13f647edd9e93ee0U,
  0xeaaf4223d23b1a0U, 0xa021acd0942281eU, 0x5f79900d1211621U, 0xf02de6beb58145f4U,
  0xd32911762feeee0bU, 0xd8cfdb1d290f08eeU, 0xd8102bde1a0b1a1cU, 0x122a396cfc2118feU,
  0x4181eb1edf09ccd8U, 0x2424e4e6023545edU, 0x3413161f4bfef9c4U, 0xeb09ef320e12d4c7U,
  0xea2523fdf4011ef2U, 0x6be0f9c0062dce45U, 0x13cce408f0be389fU, 0xf7123a26cdf6314cU,
  0x2427a46a110959b5U, 0xb097ff91705f25fU, 0xecd828fe20fbe838U, 0xffb037fe0ddfbe7U,
  0xdeeccc1abd05df40U, 0xb54bf513fc07bef7U, 0x1b1dce08fd02f3ecU, 0x3600f6ddcaf9e9eeU,
  0xffd9f9c2f4d7e11eU, 0xbd102ae5f8212602U, 0x81f43550cf0f0209U, 0xf43ba04e61e715ccU,
  0xfe2b562f1b1eefdeU, 0x3f4cec1dac19fd2aU, 0xa1cd9e0d69df8bdU, 0xbc12d62257700cU,
  0x6fc9ee21f707eccaU, 0xb081ebe40f094ac0U, 0xca55d2934b0bb321U, 0xea5e551fecf2f601U,
  0x18f430001b60cU, 0xffff9062ffffbfc6U, 0xffffa953fffe7aaeU, 0xffffc56e00004449U,
  0xfffe7e3efffedd9eU, 0xfffea83afffeb33eU, 0x141e5fffed7d5U, 0xffffe9810002518eU,
  0xffff89a100003653U, 0xfffedbed00006ff9U, 0xbcb2fffea970U, 0xb902ffff842fU,
  0xd821307f22ebf7e6U, 0x4a1b000f2039f947U, 0xddd50d1c055031edU, 0x1526c8120bbfeeeeU,
  0xf72a5e0711082203U, 0x503f7f114cf3321U, 0x2b9510a271df09fcU, 0xaf03c512cdbe8f8U,
  0xd37ff6ea15fbd344U, 0x3416f1fcd7322166U, 0x6cb7e922d5cd4a63U, 0x1c183c44bab2dd7dU,
  0x6d1f42400b21c342U, 0xc8330536b4085445U, 0x89c242030e1bf23aU, 0xe99071178124d7ccU,
  0xdef41d6693204836U, 0xdcf136ea27e005cbU, 0xf7260e33671af319U, 0x7f101acfbf3085d3U,
  0xf14c3510330e6106U, 0x5fc92f28fc1ee8ccU, 0x3c1713d67224d505U, 0x56dbd20ac5c8bb3cU,
  0x5b09a57ff1e0e53bU, 0xda2316ade0c62909U, 0xc6da72ffdedb0e1U, 0x6bf8e7ea375efac5U,
  0xd784e1613a67d736U, 0x31acbd4dc8c0445cU, 0x1e2d15be11dacc44U, 0x33402fe2c7f83a30U,
  0x440fc8d3057fd5dcU, 0xd7b40805d417090cU, 0x3711ff27aacf2e15U, 0x10f5e722c1e3f5a8U,
  0x19182fbb08c8b90aU, 0xf10d100f2bb2f6faU, 0xd131e44cbb2ddebfU, 0xe1efcc0c980006d3U,
  0x11f3330df7ea7f60U, 0x12e23c15d4dcf510U, 0x521b09062d9137c8U, 0x20295c1d50252023U,
  0x7f081ff3d100dab2U, 0xd52aef1210e85439U, 0x1f6ff59403b4a44U, 0x11adf7d2784ade0dU,
  0x7f241c223904e712U, 0xd72833c8e0fd06e3U, 0x1f00deeb0d070aU, 0xe3ed2de7c8f20303U,
  0x2ff7e4d81f022aeeU, 0xeb2415c0cfdfe5d6U, 0xfce5dc09168feafbU, 0xd3e406db082c0340U,
  0xffde3ddaf402d1feU, 0xdeed155ccf4ef4c2U, 0xdb100e371400ffc0U, 0x87882a1cd17f47cdU,
  0xa11cf7f2bf390621U, 0x15e881f304e90d0dU, 0x1a17ecdb323be013U, 0xf68716d5103216a5U,
  0xe40bdbd95ee4e938U, 0xa9e0ee27f0f03237U, 0xc6d0a7e93dd54ffaU, 0xf2d21a387fbddbc8U,
  0x1e3726f4d238db54U, 0x6afacfddebcbf510U, 0x12184a20f792091fU, 0x49242edac329f703U,
  0xdd3747e927058fa2U, 0x35221fd307ecc7feU, 0x433a38d517f03b30U, 0xa10318eb6fbd01f2U,
  0xcbf4d1c2f217c925U, 0x330a597f003efe9cU, 0xf2fca09ed181f6caU, 0x4c24f60e9627f3e8U,
  0x68121918265d2302U, 0x8c12beb02cb2139U, 0x8d9361ed340f40aU, 0xd43bcdae47609aa1U,
  0x25cefd0144de2442U, 0xf7e554ca3ab60f34U, 0xb7fe413deb22defaU, 0xf0e406290fc73418U,
  0x62270348ec31ed7fU, 0x17e010d1ccda0122U, 0xc23481141610f109U, 0xf6350be2e7d54137U,
  0xf9faf3070501cd1bU, 0xf20f0feeaf01c0ffU, 0x28caf833270ffe0aU, 0x61917e3e3e9fd03U,
  0x360b3ae50a0d06e6U, 0xddb32d8101f0dc13U, 0xb61816f417f7fd8eU, 0x2db3e6e409e4cfb8U,
  0x3e1510dfedc6164bU, 0xf82e25c20b0fe7d0U, 0xf9452c4dfe06f5f2U, 0x63b070929c80a30U,
  0xe9127f1ceb0f07dfU, 0xf6e40ae6f92b281aU, 0xe0e908240bbd19fcU, 0xda37ef06fdfa0b0bU,
  0x250f362223a3ca06U, 0x2ded2ee4dae8f0fcU, 0x29054f18eb3e7f22U, 0xe63e0343fd1c15dcU,
  0x17c7f0a6e229b5abU, 0xee0e2dff00d53ca4U, 0xe326f74201b0cdecU, 0xd712fe0481edc222U,
  0xe2e74e0f294939d4U, 0xc4efdb10ff4ae326U, 0x23cd4919af11022dU, 0xdc36d5dbc1d80ab1U,
  0x3031fef0ec09360bU, 0xf00a1fff14f9fb81U, 0x40513170df00640U, 0x8f1021beef3dc05U,
  0x110a0bdbff3a0200U, 0xfdf01717eef8e31fU, 0xce252fdd19a039cdU, 0xbd2818a9393440b6U,
  0xebf728e7334e1ef9U, 0x2e25f31102f31a92U, 0x3c7ffae73fbfc1eaU, 0x2c03dd22f1b50b2eU,
  0x267f44c5a51b8e50U, 0xa30e42d2efc9402aU, 0xf296158ff351237dU, 0xb45606f448db5c6dU,
  0x1acbf9dcc1ea1cf9U, 0x1636cfc22cf16db3U, 0x2008fce9f2452315U, 0xfd0ad307e40031d4U,
  0x71affdd2ae41053U, 0x161fcfc4d70febffU, 0xf5b98103dc08f7d2U, 0x1405f54313f70ad8U,
  0xfffe421efffe3a2eU, 0xfffe3707ffff2ffcU, 0x1759ffff5806U, 0xfffd475500005fa4U,
  0xd9a500003716U, 0xffff9e7e00009c57U, 0x784bffff960eU, 0x5f81fffea170U,
  0xfffedf5b00013e92U, 0x115c4ffffdff1U, 0xffffb7c5ffff8a54U, 0x8139ffffc218U,
  0x4cf619d13108e27fU, 0x2dc9a1d500761f4fU, 0x3d168121814df810U, 0x5ee13e11887fe21aU,
  0x7ffb04b317dc4de7U, 0xe43428194f34bbeU, 0x15362d90ff99d409U, 0xfbe116351afdf24cU,
  0x4ea5c7d74e7405d7U, 0xa918b3f144d923ecU, 0x202b86ff1187ce32U, 0x198320aa12812834U,
  0x3f5081ca7ff0dfefU, 0xef18257f782b63c5U, 0xef81a7e9fc4b4147U, 0x8155d3fdcce542cfU,
  0x6c81465725e0fe1dU, 0xc416abdf4b0c66ceU, 0xe77f6c811ad2eafcU, 0xe528993781413c56U,
  0x810a0ec03ec4e081U, 0xd93de63d7a067fdeU, 0x68b281fe377fb47fU, 0x28dee485f036340aU,
  0x8bcefabb0c4a52faU, 0x35df3934a60d8118U, 0x3c0435002b207f29U, 0xfffcfa60ffff7e01U,
  0xfffba5ab00002516U, 0xf528000581a0U, 0x183f2fffbeafaU, 0x814fffa6e23U,
  0xffff5a34fffd2836U, 0x454cefffcd109U, 0xfffa98c60003ab3eU, 0xfff7e667000141d6U,
  0x291bfffddc1cU, 0x2ce7a0005ff12U, 0xfffef7520003eb88U, 0xf715d0e0fb981701U,
  0x2181940aaf684006U, 0x11c7dc702c1ef4efU, 0xa50e32091a00becbU, 0xa6e6c91110f230e2U,
  0x1dfca0ece4997f39U, 0x58e3155d08eefe10U, 0xc5f340cfd9d3f393U, 0x13fe819c44d714f2U,
  0xafe7ff3f8b2c7c5U, 0xe1189c521b1b522cU, 0x2fbbd419d3f929e3U, 0x5b11cccc2facde0U,
  0x5333ed2f8114f7c6U, 0x21e5babae5091228U, 0xaf20ddd5fc07e230U, 0x810e5ce2d3b20d98U,
  0xfdf9ad11dc0fca47U, 0xd9031c22a315ee32U, 0xe0bd7fbf25f789U, 0xd2e279f348b32f1dU,
  0xfbee7febb8afeaacU, 0x236f22424901ee49U, 0x9631fbcdf3e4e805U, 0xeb0e26aebb3456d9U,
  0x7821305eb705e981U, 0xeec13bdb19f6f0bcU, 0x18cab255e5f5321bU, 0x268172b3f119c35bU,
  0x6384828b9bb57bcU, 0x11013017106a1de6U, 0x1af81d81cceef6fbU, 0x2ed843192bf34646U,
  0xb903be360f39fa22U, 0xa7e5eceddfc40de4U, 0x2d0c510981e2bf51U, 0x1d7f2ad80d1359b9U,
  0x15d3d4a1c4feeda2U, 0xeab20c6184549d1U, 0x187fbde5f7c8e83cU, 0xedd3ec2e99fdf4e6U,
  0x3927c807cce2090fU, 0x6c0b7fe31dee1613U, 0x10352202f0268d08U, 0x643daf60a3bd947U,
  0xdf46271e6ebfd80bU, 0x15411c7b3bf3eb8U, 0xfb710c88ae812febU, 0x1f860233d141c11eU,
  0xdfc44bd52818e30eU, 0x72bba810c13d1d7U, 0x1ed9623dfea59081U, 0x253fce10221c2210U,
  0xeafde4634020e048U, 0xd840f4402222bcc9U, 0xec3430132f5fe7fU, 0xe9d6cb4829c8d007U,
  0x793fdf61490d34e9U, 0x18170e147f19240fU, 0xd1f8a6d35f01c0f6U, 0xd6e54ebd08261d30U,
  0xe8eb581616141809U, 0x45207fd010c6eb98U, 0x1cfa50d081071f04U, 0x2cd5c7e507fb50f0U,
  0xf7d114fd4110dc40U, 0x54e5488fa9e776afU, 0x7f0b94f1fdca7964U, 0x1933fac91cf40153U,
  0x4fe61d0b3bd27f35U, 0x79fd53014f51fdbU, 0x2103f9184ee6e50aU, 0x6a0000005fU,
  0x650000005aU, 0x8200000051U, 0x710000005eU, 0x8800000078U,
  0x5d00000052U, 0x550000007bU, 0x9d00000056U, 0x7200000072U,
  0x770000005dU, 0x4b0000005dU, 0x6600000077U, 0xe587045129f94ebeU,
  0x550b3ad7befac524U, 0xcc593011ec304740U, 0xb7fd74e73bdba258U, 0x967fdca8d01110ecU,
  0xa6f4e8eff5063534U, 0x434e22f621692347U, 0x9f9b43fbc1e62dafU, 0x8108f1506527f3ecU,
  0xdaec47466921fef0U, 0xe4db2e2e62d413f3U, 0x6fec731f98ca3ed1U, 0x546bdb7591c817eU,
  0x10ccf91ee428b4e9U, 0x11ddebccf23acb2dU, 0xed6329f3bf00cd1dU, 0xaa8bef8bfcd1e7fcU,
  0xd6ea3e2938a71d37U, 0xf8594b0f6ade161aU, 0x1e37d5f71529512aU, 0x11bd67192141caf9U,
  0x441411fe81cc11ccU, 0xf025b4dc06d7ee53U, 0x8adfbe0f8b8e4d8U, 0xc7017cfb00fbfb46U,
  0xfa66cff4a200eea8U, 0xf4f3d6ca1cf201c0U, 0x26e0aaaeee352303U, 0x9ad1b2621f529baU,
  0x17813abfdaefe3ebU, 0xcdb5020d7127b51eU, 0x1ed5032eee29e088U, 0x1e1cb4cecf2ffacaU,
  0x1caed01718ea4a30U, 0xf88136d11843d66cU, 0xa90605d2ec44aef7U, 0xd6092da7e4d41415U,
  0x29285a401243818bU, 0xc9ce15117f9e00bcU, 0xa2cfc7fcf9fc36f6U, 0x206b0114d45cdc00U,
  0xe9021fda3847c9fdU, 0xa216b9851a13030dU, 0xcaf9aab13a77f831U, 0xc1e42421c6cce832U,
  0xdbd9dbfed0a27fU, 0xfc9b14737067d58U, 0xdbed25e829e562c9U, 0x9f13f9057147ee38U,
  0xdf7f2ef718a70eb1U, 0xd8e8cd2e92bdfbccU, 0xdce8abed28a33a35U, 0x21f4bdea69c51545U,
  0xe8fa3db1d4c4ebcdU, 0x47d3f2ed01db2bfcU, 0xf1199c55df219c75U, 0xe606c216dccc0c0eU,
  0x12cce5f1ded9990bU, 0xef2b17fc25bb1055U, 0xc8cd13871181b011U, 0x187f2ffb82d4c3c4U,
  0x6af2fb2df5d1fdebU, 0x3aec1db32b6ef719U, 0x53f80e038af9fee1U, 0xac28d6b1c75544b2U,
  0x151f1bb240571ffeU, 0xfbf9f6ce0dc70f0eU, 0xebdcfa0de6f5fd4bU, 0xc0050132e5a72e30U,
  0x28ee25a1e9edd3e6U, 0x38f7cbdc3f1934f0U, 0x2482021143a0381U, 0xa802e73ed47ffd6cU,
  0x44a960ec08c1f5d7U, 0x5911d54d53f12db1U, 0xcae42dc91c76012aU, 0xc3bbd2063914d6c4U,
  0x43e363cfa4b78cdcU, 0x3c810f22120768U, 0xe1fae125fff204fdU, 0x41db1f0defbbc5d9U,
  0xd9d3c8d2511ed9e0U, 0xd1a31857f8042065U, 0x3aefd20115a407e1U, 0x3328331715de3fd8U,
  0x95e1cfe20120d006U, 0x31d3f107c00a8109U, 0x248d67e30d20bbcaU, 0x1dd5f02c42069d4dU,
  0xd1103e35fc01045cU, 0xc10ac869f7c926b1U, 0x13e5124018431beaU, 0x26811ba32b8fdfcaU,
  0xecd5bc5430739dd0U, 0xd935024d681bfb16U, 0xc1222efc3190cddU, 0xf4fdc0eace01cb01U,
  0x56c7fb1bcce9d2bfU, 0x921013fcec0811f4U, 0x3015d7061bb430c7U, 0xfcea0cdf2fca2b30U,
  0xd62181e3b902f2c7U, 0x2942f8fc0ae37f05U, 0x410dad4b0cab0330U, 0xd2cbfadc190d0842U,
  0xb50f7561239eb20U, 0xddbc34dd141125d8U, 0xd4c1ece205c2411eU, 0xe3c51404143ff328U,
  0x290deee55721b470U, 0x5a17af4e11ff2cd0U, 0x192df316c7bf1103U, 0x2445e205e83641eaU,
  0xfdac223b08114e8U, 0x13343ddcf8f43af4U, 0x3e06112f136cf2e3U, 0x30c440cc2a04f100U,
  0xdeed15ec12fbc203U, 0xfe1a3b81f3e7a206U, 0xb8e74cd846a3d00cU, 0x160c27a93a14e213U,
  0xf0d8260904dce71bU, 0x479806e5bc9c79e9U, 0x54cc1ee3fdc2490eU, 0xd97f1af9e18d2d17U,
  0x95f6f5d52039df0cU, 0xfa08cfe6e81e435aU, 0x22cefc0ef20fd0d8U, 0x1c00e70d24cceeU,
  0xef0bdac6f32ac65dU, 0x153f4f31b761b47fU, 0x4b26ce2b054de7e4U, 0xd0f754300202c921U,
  0x3efbe4bff9ece7dbU, 0xe8bb070931e110e9U, 0x24aaed1a122c117fU, 0xe2d9ccfddb2ee1eeU,
  0xce1edf0708edea2eU, 0xebfd1d17d2e1e800U, 0xbe8137f30109fbeaU, 0xea0f39fff32410d1U,
  0x454217e4aaf7083bU, 0x23af519e3e1362eU, 0x1ec635b6d9de42b6U, 0xfffd8e55ffffc4deU,
  0xffff517a00019da0U, 0x1193200020945U, 0xbbaf00009697U, 0x263a20001891eU,
  0x7328ffffde41U, 0xbce1ffffda36U, 0x4bc400003139U, 0xfffed1010002fd29U,
  0x28fcffff26caU, 0xfffe915300005e31U, 0x72580000acd5U, 0xb303a937bc22ffd3U,
  0x8d64cb044b3df44U, 0x510c241239a9901aU, 0x43eedfb53307130dU, 0xbc5b42ec00ce0c20U,
  0x39267f1e09d32319U, 0x4441dc04341efffbU, 0xb9898149bfc5eeb8U, 0x27fe0fde5b05053bU,
  0xd5f3fb175203fcaaU, 0x2af4dbf42f1310b9U, 0xac71bd4c58ad44f8U, 0x1eb1fff1f1d707eeU,
  0xf9fedef01421020dU, 0x5a12f0f90624ec63U, 0xedf8f9003101eb2bU, 0x81073d0b4610a1ebU,
  0xc40bf5fefce813e6U, 0x1c3bb3095fb6a5ecU, 0xf7c9f789d91b0fbbU, 0x3a9e605325613fafU,
  0x52fac5e3b8f9cf4bU, 0x4012f5d44e3f9eefU, 0xd27ffb05d89706d4U, 0x4e4e0d3b80f25d5U,
  0xd1d951dbecd3efacU, 0x411cd0466c525f0U, 0xd95b25d7d00e10f2U, 0xf2a0605cb24d9cfU,
  0xefccdbcbcf138119U, 0x2f26c7e5fa014105U, 0x3881f9d6ee37dc5cU, 0x410add2f0a44d11eU,
  0x30bcdf7ad40b16fcU, 0x112c071fff1d2fU, 0xfca08c0170ffb12U, 0xf0ad8d3961028148U,
  0x1a39139cd91af94aU, 0xebe827f877ef2565U, 0x8a9b633fd516b2b3U, 0x5e5afb31c916bd5bU,
  0x27aecbdd11cf2b3fU, 0x28d41113551cef1fU, 0xd12320f21504ecd1U, 0x3deaf1c081dd2507U,
  0xeef1bceb6d91fffU, 0xc3ee08d40129371fU, 0xb8080f9a3ae6213dU, 0xddd00131030a0ccdU,
  0xfef58117e2f706d2U, 0xd9e2e70116ff1209U, 0xf70e096af76af2d3U, 0xd03ffc916d9d52cU,
  0x1529220aef1b1706U, 0x10a113287fec2111U, 0xf2d2d011938ee525U, 0x1ce0ee040329da12U,
  0xe21f2dc906db1de0U, 0xe2923b4f1648ff5U, 0x7f3dc3501ec3968U, 0x20f1bbef0b071aafU,
  0x15ee4b367f461419U, 0xc97c44e257272543U, 0xb272d60e41aaf003U, 0x2acdd4d73616d31eU,
  0xc5180646d7031b64U, 0xec19391fb5d8347fU, 0xe3ff41f1075d15c0U, 0x15f1e9fb1459e5U,
  0x126125bae61ed42cU, 0x1917251f32902b2eU, 0xf78ff05cd9f01e04U, 0xad8f214384f3518U,
  0x26c21f2ba5e8d411U, 0x9c3eb7bbf5dee58fU, 0x2ec0eb082a073ff6U, 0x96e2f30735fef035U,
  0xf2815096d51603U, 0xdd47e5eef971e16aU, 0xe3fc60b95981f51aU, 0xf01ac6aecf8180dU,
  0xf91ae2d2cbfdcf06U, 0xe03d38da42104a10U, 0x4ab0b4ee29ca4314U, 0x263714ed10fe3f12U,
  0x344ef0e3360fd2ffU, 0x32111ee881bd2623U, 0xeff5eee202dbfceaU, 0x8acee12d7e1ef0fU,
  0x252b2207fdd34affU, 0xa351931c97aa3f1U, 0x5f07a5ebba0addecU, 0xddf420f42c9e819cU,
  0x43a6a6d2fb2a1fe3U, 0xe0f7c81ff049fcdeU, 0x1c030516b6fba764U, 0xa42dc0ce1113f5c5U,
  0x244069de3317da1eU, 0xa51743d67fec04adU, 0x7b050d237afac24U, 0x4e0aebcb00ffeea2U,
  0xf7ccf8374dd14419U, 0xbddd111a7f0e2610U, 0x517ebe117e51525U, 0xcc14fb2b2cfafff1U,
  0xa1cd3eb15ddf22eU, 0xafe511f5140bda0aU, 0xeb0329f9ad1c06ffU, 0xb4d4b8e551151925U,
  0xc015ab05c85d4423U, 0xdf3ff504f1aa4931U, 0x67f45ffdcc64c11U, 0xaa55eb2a1056181dU,
  0x2d13266d2d34a9a2U, 0xc2e90c35fe41dfd0U, 0x4c1d2f021e08232eU, 0xc62fc1171e14ff0dU,
  0x1f000fe2140a31eeU, 0x10fe19e44d130302U, 0x7ff6fe1fe433ed52U, 0xbe48f0f990cf1d0U,
  0xe8feaeedc904cfd9U, 0xbd3a51e7ff034eaU, 0x4140506104baaeaU, 0x74ebe0e5e4f2f459U,
  0x5bc1ec36e61ee81cU, 0x1afc33fecb0b727fU, 0x2d234ead0babad16U, 0x1efa88b812481502U,
  0xdcd594e20800f9a5U, 0x2a0914ffcbd4d1ceU, 0xeffdc922ca201d1cU, 0xf32e2e2c01115000U,
  0x17111e1046b60ddbU, 0xf1ecf39bfb3a3819U, 0x331bc8fd11fbc322U, 0x20f725120dfffa1cU,
  0xc01c06d6410b7ff9U, 0xff11a7131527de10U, 0x2a06fc0e1d157f4bU, 0xd81641fd273609ddU,
  0x2e1e2febad33c702U, 0xe6bc451cc0043937U, 0x2eaf2ecd20d43bfU, 0x7256ffff2c07U,
  0xdfa900001dafU, 0xfffe3b3d000290deU, 0xaa1afffff4a6U, 0x676000004959U,
  0xfffe339ffffd86fdU, 0xffff009c00019f57U, 0x21379ffffab12U, 0xffffb7a000008be6U,
  0xfffd605ffffe1095U, 0xf86000016449U, 0xfffe8e48fffe2f30U, 0x6f210fb8130eb43fU,
  0x29e80c453bc77f81U, 0x3f03ef956f9fadbU, 0x1648f00a0d0a001eU, 0x20f6d80fce810ec2U,
  0x51210deee4207f81U, 0xda0681a58124d93dU, 0x11e1d9fce204100bU, 0x7fe6ed247f52e4bdU,
  0xc3ffe942262416e3U, 0xebf336261b416a66U, 0x2dc61dad117f86ecU, 0x658144ad8ff15f7fU,
  0xed81be2e0a17b3adU, 0xc52e18eab802f40eU, 0x812a28ae54eb8e20U, 0x1bf830e870dc4712U,
  0x40dcfe7f97bf52f0U, 0x4e4a2bc9f6281dfdU, 0xe007dfe9af33096cU, 0xae8142f6a5f2211dU,
  0x49e167dede818124U, 0x81d07f811ee4a10bU, 0x339149bf72e9bd27U, 0x3f03f77fe9372809U,
  0xf7f41a087f3a5bc4U, 0x93a081083802a60dU, 0x1a8d1fffb69ecU, 0x19e970000062fU,
  0xfffe8c57000335d8U, 0xfffd2a2affff0dc6U, 0xfffcb668000143f0U, 0xfffd54c50000cd60U,
  0xfffe7955ffffd069U, 0x192ce00036c38U, 0x10b6c00024c5aU, 0xffff1deffffdbcc0U,
  0xfffdfcc0000081d6U, 0xfffe0ffb0003fac2U, 0xdadf04caa63ebad2U, 0xeada79231cb381faU,
  0xfeb7458748e6d9b8U, 0xddfd75d01211d9b7U, 0x20f9fd2c14c37fc4U, 0x27a940eade3df603U,
  0xfdf5e6185827d54bU, 0xd8f4ecdd273eede7U, 0xe75d7f021c7c1d47U, 0xeca8c3ac9df6f83eU,
  0x50d50c1f165a05cfU, 0x81dc4b3cfd1c3546U, 0x76dbfb46f04fdbd0U, 0x1ff448ef7f5cc5f9U,
  0x28e0f92c42d55117U, 0x5a81ceff637226d6U, 0x26113222cfd3b923U, 0xd8c0a00451ee0e99U,
  0x36b2e10cb5f219acU, 0xf80a0af6f51afa75U, 0xf456531bcc8120dfU, 0xfbe70d0c917706d7U,
  0xa01f394931e27f1bU, 0xe8daee3ef9f7eed0U, 0xacbd8aa00ed2065U, 0xdd79df2945ef3765U,
  0x303ec3f4815bc95aU, 0x43d133b01d116d04U, 0x8168040e0e1cc14fU, 0xdd05efbae10d0cedU,
  0xe83f1e2db4217f0cU, 0x50eaecedf2261037U, 0x1cc3d5c9d4f8cdfcU, 0xd8c53d8193e64a51U,
  0x18cd4127bf1419fbU, 0x39a2009b621175bU, 0x99e8dbe9fb5110ddU, 0xeb972ca74815f8ddU,
  0x81df18e712b20ff1U, 0x781b0b9ae481b9b8U, 0xb2f5e5f26d2a8b25U, 0x2848c2da034e0748U,
  0x3cc46e5fef92beaU, 0xac8b0cd10f3c0c7U, 0xe8237f252a27dbc4U, 0x3f3b120b0c04eb66U,
  0x41b87f13d5f79167U, 0xb5dd5314330ce9f2U, 0x23d678152a7fbdd1U, 0x295aea3a2f6a51e5U,
  0x20e2f3d2d7d91cedU, 0xef45c324379602eeU, 0x3c1e3cebd4350aa8U, 0x81244604bdb90ecfU,
  0xdf59bd85d09eb92U, 0x307f98da4bc108e5U, 0xfc1dc5843d49d066U, 0xb3b10578c17fdc8aU,
  0xd81f872be227f434U, 0xe829147eddf55402U, 0xeff8ef2cadf90ee8U, 0x15ed41d5c72448a2U,
  0x15d1b2ed1cf25881U, 0x230eac31e2f798d8U, 0xcb1f97f023dac092U, 0xebef127f39aaf041U,
  0x4bf9523c06c9160eU, 0xcccf81b29d0df93cU, 0x218b7cdfbd0ca13U, 0x5038382f1bb7f739U,
  0x5bd323cb0681dcf8U, 0x51b1f00fa831dee1U, 0x8f0000009aU, 0xc000000098U,
  0xa800000099U, 0x8e00000086U, 0x78000000c7U, 0x8f000000a6U,
  0xbe00000072U, 0x9700000071U, 0x8000000089U, 0xa4000000aaU,
  0xb50000006dU, 0x9f0000008bU, 0x214757451e1803f5U, 0x433dd8a45ff5090fU,
  0x1011977fae14b6bfU, 0xb00dbe213e413b5U, 0x53907fd3eed1f00U, 0x910cebf606e615f7U,
  0x43cc29cef939191eU, 0xda07f6c51e05b350U, 0xdbaa4afdc8410f4aU, 0x263f3949fccc6864U,
  0x811af332cdcfa0c0U, 0xa2f617b4241af03fU, 0xa726ade3eb472250U, 0x3c32d6053e95340U,
  0xfe1b1c26384a11dcU, 0xdaad6703d4a4b0d6U, 0xd43769ba8134b71eU, 0xebb9dd0c963a36feU,
  0x4747b0233c48c684U, 0x547495f63e8d42fcU, 0x6bf2c329d100252eU, 0xb6a0eb0ca581508eU,
  0x2405c60125f36723U, 0x2719db7a051d6ff1U, 0x10147f0faafbd7fbU, 0x3fd101b2406ee27U,
  0xae2e9fbce0c1300U, 0xe622342d0550dfc5U, 0xf0142f354ef4f0d1U, 0x5e034fef1d65602U,
  0x8d59171ae13ddd81U, 0x3cc9c5bd26d9f40eU, 0x16450b60f9ee14bcU, 0x8ab17ef334acfeaU,
  0x9103e9381b292fe6U, 0xfceff70ddf09bc05U, 0x91eeffe0319ff01U, 0xad44000eb5d4852aU,
  0xc9d8220617d9252bU, 0xf1338124e427d712U, 0xa7405f0b01e4c7f0U, 0x24fa83c7e20915f5U,
  0xb3f5047fe741c91dU, 0xfed31aeb8cfdf798U, 0xa303e7dbedda9cc0U, 0x1db330322586bac5U,
  0x221336b3c724eb9bU, 0x1f6cb0c0bcd81a2eU, 0xfc1ce8f5d2a6d0faU, 0xf541c34b64f434a1U,
  0xc08120f5cfc6e2daU, 0x6759cbb046a1c294U, 0x6a11d8b4dbf0eba4U, 0x1ee13be42296064cU,
  0xa37a4f1f91f77a8U, 0xc10b2c34df41b292U, 0x4536a3c91bdbbd3dU, 0xcc1aa7f2d9c038c9U,
  0x17d6ea81202db458U, 0xcdb5323d33e8431fU, 0x16dbbe47eb612214U, 0xfaee1d4dfc09e1baU,
  0xdeeeb5d3fa6ee4f0U, 0x122fc415c90e0091U, 0x1a39168ce6810a38U, 0x3b0b51f206ee0a06U,
  0x9c340818e7031f0fU, 0x16f33ee2ef0e18ecU, 0x939363fe15130d6U, 0x3831fe23a616e9f3U,
  0xbaff128114e1f009U, 0x20b2dae15220f72bU, 0xe30ccdf416d80d55U, 0x2412cffda3205b13U,
  0xd638f11113ead6d6U, 0x1af0df1c3fe82700U, 0xf51119398116c8b3U, 0x1efee9f80aeed3d2U,
  0xe19b15f81f1c8df1U, 0x27f619c21981e00dU, 0xd808cd1f09269ae7U, 0x4823fde6cd0e0156U,
  0xd2e3031beeade8a9U, 0xf3c5de3d2cec00e7U, 0x455fef1426450928U, 0x3e42f7d4d4a8e3c2U,
  0x17cff535aed81942U, 0xefed39fc8fab0713U, 0x12b87f06b33d3ea6U, 0xa30243d09a2fdceaU,
  0xf0eaa681051a07d7U, 0xf4e4f149f72720cfU, 0x25c1f24b1908f6fbU, 0xcd26e5030b1bdbf7U,
  0x14fb20e1ea2c032bU, 0x22241af16b0eff29U, 0x81e23b35012815b8U, 0xd61327010f61431bU,
  0x1d3fbda0e50e0918U, 0xeb88e4e03cb42e1aU, 0x3238eef3cb15c216U, 0x20f15a0113e3d401U,
  0x41b59f774d6d83ceU, 0x435b816c10da55d0U, 0x4eb5421438030a9aU, 0xf9e166e11aa0443fU,
  0xbb9daefda810c30fU, 0xc2b659d700207319U, 0x32023ba1d815bc01U, 0x51ecea04fbee19e1U,
  0x812be744100508cdU, 0x15ac03e6c5d12effU, 0x142ff9b6ef52dee1U, 0x1210e3dfc8efda1fU,
  0x40dbf21b935e4ceU, 0x38ff178a6ad63c5aU, 0x29df0188fc9724a0U, 0xbc36d64fe93e0811U,
  0x810208f3fe15e021U, 0xef0719090b385758U, 0xc21d24dfb9ddd40eU, 0x1c1deed8122bc7U,
  0xb3ef1717f3cf0d51U, 0xdc812ffe3508f4dbU, 0xe11616cbcad5eb0aU, 0x80de717feec1cd4U,
  0xb9f4a5ffd707fafdU, 0x5a0b19d5ea17fcefU, 0x160b0c2e403bc2f2U, 0xff221226ed29cd37U,
  0xeb030b110de51820U, 0x218f021f904e07fU, 0xff1027e0036c4540U, 0xbd157f4019ff0fcbU,
  0xff11cf511a9e4e8U, 0xe2e1ecd92222f840U, 0x3ee301f218043105U, 0xacfee20cfdc5e012U,
  0xd4ef48ced00be218U, 0xfedadd7fb02210eeU, 0x23d0cd2c24cee000U, 0xfd1e0d06f94f2de6U,
  0x30fdff14ca27dee9U, 0x1307e20200fc0909U, 0xf8d71213fd542aebU, 0x437f35049ef5be28U,
  0x9315dd05d9d331b6U, 0xff2b1e02e34df701U, 0x10fce11859ad2e0aU, 0xf855b5690a166cf3U,
  0xebe71bebd6e1fee4U, 0xf9b1be81e4ef17deU, 0xf0dac919dcf03001U, 0x3325e00be119175aU,
  0x718f2b481ce12f7U, 0x3afa131900fad8ddU, 0x3b0c2913f2d9f910U, 0xd70f1e067fd2aff1U,
  0xfbdcf149eabecde2U, 0x91829190ae7dcf2U, 0xf93dfbaded5defc9U, 0xf30b13ec48fec33aU,
  0xd60cad24337f31e7U, 0x1000aa3abfddda1bU, 0x8252527f8e8e83dU, 0xe5c9234bc936c8eaU,
  0x1e10ec031eba0bc8U, 0x45d7efe4dfe2baf1U, 0xeff62004d72e64bbU, 0xd301940ee702fa10U,
  0xe05f4dfc3020bf8U, 0x2e176db45030128dU, 0xd62728001ee6ec17U, 0xc347b100f781d5fdU,
  0xece3eeddf1da1934U, 0xe71313ec17392455U, 0xee002af8c10922d6U, 0x496b81e1be1edf4aU,
  0x2401d417e05550d7U, 0xfe48e953dee40fc6U, 0x71e171fb90be82bU, 0x27502aea00fd12bdU,
  0x9b428054d33040bU, 0x26052af338043cf5U, 0x160d2fe708dfe113U, 0xdf2227ce90f08142U,
  0xd5f1d50e36ece433U, 0xfaf9cf1b023732f5U, 0xfb0f25177f5101c1U, 0x3afada0e59c5db04U,
  0x11406c9afee00baU, 0xd23d1603dc5c0cf3U, 0xb3c26a539dc0e78U, 0xdb4f774ec5f0b2f4U,
  0xad217f2a2ff8f2e4U, 0xe107bd47e8fbb957U, 0xf8e3d0d13133cad8U, 0x1442d6f42e40e610U,
  0x2dee0dbc2300dfd7U, 0xd9c2a4450deafeffU, 0xd8dad03d03d7cde3U, 0x1917d41a3ae4b50eU,
  0x9d2ef2f67fe172efU, 0xc4fbf393d2f88111U, 0xf8bb3424237848ceU, 0xce0717256c011b81U,
  0xadedf2b96eccbcdbU, 0xe508ce14c2cd0087U, 0x2660ab447adab416U, 0xe94e75091bce16d2U,
  0xf616e5fb92333046U, 0x35d8efddead3f2baU, 0x410aeb2e10b7de28U, 0x7686b315edbf5754U,
  0xf6810e620fcabbe8U, 0x5c51f1dcf8e5efd7U, 0xe01da281cfd0b08U, 0xb320f520ace21dU,
  0xf2907016326f4e5U, 0xfae4811a3a001edfU, 0x242427eee5daefe1U, 0xfc19eee02404fbe8U,
  0xd000cb16f31df8b9U, 0x17f3f3d9dceae0f5U, 0xf1c2e3e6cacefb13U, 0x1ce3c0d14dd80601U,
  0x2081feda3cea08f9U, 0xeedffa4af8f4f111U, 0x7fdd991ec474df1U, 0x719ec033ffaf8cbU,
  0xe823dec917fb15b1U, 0xdc5ec9f51fe8e84aU, 0xe1d0251523f8093aU, 0x497f36e219b72ddfU,
  0x2cf71839a9c7cd01U, 0xb23360b9191df02bU, 0x5b17accf330ffe5bU, 0x811dea13d021df46U,
  0x150c9bed183f6448U, 0xfd04150b46c89dfaU, 0x1a25ff21e1d2e985U, 0x76fb0a7f39e1f6a2U,
  0x741596e10029edf3U, 0xf706a7e0fb24fe08U, 0x13e91ec158b00f56U, 0x13354e21b713e0feU,
  0xdaf6efacd7f828d7U, 0xd9fce6b8b32281f5U, 0x8ed04ed1634aa2dU, 0xf2dad703da12cf1dU,
  0xf33e2e5c2923e220U, 0xddefedfce41afe03U, 0x2633203b665ca744U, 0x2a81d96abfcaac5dU,
  0xfae64c1f28e33b11U, 0xebfff04520171e03U, 0x87ce45d744187a3bU, 0xf7c3f85d04d5dafaU,
  0xc3dc3fe9134c0342U, 0x17db0ae4bdedc60dU, 0x26161c0928f91211U, 0x37e4d019f71cccddU,
  0xc6f8fefef45cf631U, 0x24fa2d06097fcbbcU, 0xf92814cf29814005U, 0x2b7e446ed004ae3U,
  0x3f1d3ced1fce1100U, 0x1129181af0290407U, 0x2d15f5e63d47c0d4U, 0xf95f2e15fd21b008U,
  0x926dbdfc92b6eae4U, 0x4b1bcd91423ae27fU, 0x2e9ff90b3021fd33U, 0x3c0214bca201372aU,
  0x2edd0d240cf20dffU, 0xe4df4cf4f046e79eU, 0x1de0f11eec012e02U, 0x3120b93402b567f2U,
  0xe3602b2812016500U, 0x74b76d8d338d9ddU, 0xe2eab9cc29effcffU, 0xa1cefa0a15088117U,
  0xfd0cd1f30b421845U, 0x47da0b110f0bf3faU, 0xf12ffe0130d001d8U, 0xded12217bd1f7fecU,
  0xecf937fb17fed307U, 0x8c7b922130905eaU, 0xffffcbb1ffffbbf3U, 0xffff4b9400002989U,
  0x148f2fffef6cfU, 0x39955000169bbU, 0x125b800034a94U, 0xffff65e500009c85U,
  0x28bf9000123bcU, 0xffff788b000077b0U, 0xffffe89a00001a44U, 0xffff88bd00017adfU,
  0xfffed21e00020cd2U, 0xfffffdc0fffeb7c6U, 0x28adafffdb804U, 0xb6170000856cU,
  0xfffe61c600011e15U, 0xffff8b9effff4fdbU, 0x29e5afffe5135U, 0x1409b00008a5bU,
  0x21789000047e3U, 0xffff7716ffff1453U, 0x1a96cffffa823U, 0xfffeb40cfffc7f8eU,
  0xaedfffe3cc9U, 0xffff101effffd538U, 0x9b725261af316cdU, 0xd8e87c2cecebf5f9U,
  0xd9fde360113dfd5fU, 0x3a0dd56ff73c4afcU, 0xf926014bd2090d14U, 0xc2e40870ca2b0447U,
  0xd0d15416ca919d0fU, 0xb21d81debdf7dfcdU, 0xf724ec03cbcd35ebU, 0xb50c30cd9adef4c5U,
  0xcce32a6cf2f6c8e0U, 0x110224d81012c58fU, 0x39d2ca00dd0feccfU, 0xd2ab1de5fa02deb7U,
  0x720d8e53aff4012U, 0x360ba73f2fee42f3U, 0xed2b08d9d4d41c05U, 0xfe1be2cf8ded431eU,
  0x381daa3efdbfb0bU, 0x26cd68cdb5dc13fbU, 0xec0e137c0f6bba2U, 0xea6f0c5180d4781U,
  0xcdd3f000271cf5f0U, 0x27db16e4fd0bc3e8U, 0xfe14f133c5ff2c20U, 0xe2c7c24910f5d915U,
  0x1c1a19f5243f0e20U, 0x1c1b0443f90739d3U, 0xb9dc4412ee3cefd3U, 0xf781f009627f7015U,
  0xae6405074e2c4ae4U, 0xf0160a19fbff1a2eU, 0x7ef0b2f0337d9d7U, 0xa40be19c21dc1f1U,
  0x702f90a0c3a9ee2U, 0xf9fa021d15e6ea59U, 0xffb7262cf92ed995U, 0x1ffd48010e2010faU,
  0xeb42f9e22b017f4eU, 0xebeb9ad93402fe4aU, 0x100916a8562f5de9U, 0x1305e306df2712e1U,
  0x4cad42a460fbb7bcU, 0xff029d82ca9e2e3U, 0x150fb608283a04c3U, 0xd7d53e5903ff25d3U,
  0x1dafd7e1e62666a9U, 0xff19b0220ac5417fU, 0xecf63ea71d29bb21U, 0x2e4740303ee3c60aU,
  0x15d710fc3427404fU, 0x34bff9b0e4a2e2b1U, 0xed3bc3d5c91d7a3eU, 0x89fde1be3333ea2U,
  0xfcbaba25f3e251f4U, 0xd93f5896d5f9277fU, 0xedfe02bb190b1acdU, 0xa91de70e13bbff11U,
  0x26bfff1243131418U, 0xf91fcee9083de503U, 0x76e103e4c4a4ac09U, 0xbb7f27048139eb11U,
  0xde161af7da4f330aU, 0xd7cad281ebf90bebU, 0x4b1cf8e2caddba05U, 0xdacedd7fe44cdfe0U,
  0xd8bce3d081f71213U, 0xe9c931fdccbafed5U, 0xfae7f10b042ca2b6U, 0xd8fa40aa0ddfefdaU,
  0xba093752422ce7d2U, 0x12d47ae72edb620cU, 0x39845c4a28e8e9c8U, 0x22dd0ef696d51be0U,
  0xc8212cea201f19feU, 0xdcc9f4f1d43507f1U, 0xee450c2341a5c0daU, 0xcc02d414e32d81f3U,
  0xbc0ee35808e0f5e1U, 0x24134ccb0eed06a0U, 0x19da28b520e6fcb4U, 0xff03d531f3ee0400U,
  0x3e22bcb24de0c2aU, 0xb3a1b1cf5f3170bU, 0xc992f5f1174c3931U, 0xe025c251bdfddbadU,
  0xdacdd644eb19fc30U, 0xfde78117f8c216c7U, 0xebb0fb3e1f39a3deU, 0xed43e3b39d3c0d32U,
  0x7f34ffa8dff121a9U, 0xb5d0280f010cd8c7U, 0x4c2d280c0cabe145U, 0x9c1fcb0cd2b8062aU,
  0x7e42a5d1d25ef33U, 0x3c431e1e01df10f1U, 0x4443f955fd1af0f1U, 0x21ce9c5f10340f5U,
  0x27d50aff220e6a10U, 0x83ffcdef1ce828ffU, 0x3ad8e61ee3061941U, 0xe43ed7f9023dd1e5U,
  0xe93aea18014147ddU, 0xc153730212e0e012U, 0x406df897f3c229fbU, 0xd0880914d904ed17U,
  0xf9122924eff7ce66U, 0x58d8f4e6e9485642U, 0xf9eb01b7f734cd0bU, 0xabf8e3d728eec907U,
  0xe74b08b1e6a9f63aU, 0xf6f5d645d71de6d0U, 0x6d30504db3429dcU, 0x33e3fa390044c9a9U,
  0xf33f290ef11bcfecU, 0x9effec3372b32ceU, 0xc70ad5ffed1400d8U, 0xdc4f043bf8c1d2d1U,
  0xcf5f21d2981cbefU, 0x282dd2390f11f6b9U, 0xbfa744f2121e1fe3U, 0x7fd991d8fb43efcaU,
  0x9807ef18fbff07dfU, 0xfaf1f5ab3c51d3ebU, 0x2844fd39ebe8f81aU, 0xdedd0dab8bcff797U,
  0xb644f4cad113542bU, 0xc8e65de3ce4e091bU, 0x725db1bc52c1121U, 0xfb20d8b5d1e0f9f5U,
  0x467ff24029dec022U, 0x3fb4c7f611252b07U, 0x1d40f8411b0c7f67U, 0x3600273ffd07f14aU,
  0x33f3dd1b280531d0U, 0xed0e7fe1e0f876f2U, 0xe1061eae1874fadeU, 0xdda4e82df3cb0a22U,
  0xc900ca812f06da3aU, 0x8cb3e8a0d616bbdaU, 0xa347df31df10cbebU, 0xf81043887fedfad9U,
  0xb1af50c01ba62f2U, 0xe123fabfdfd7b4e0U, 0xeb3f6357f1e82b38U, 0x13e10c0feddd0331U,
  0xc33e812ef3351111U, 0xe859f16839f6d419U, 0x3cec043fe5e5e6e0U, 0x761db12eadc5332U,
  0xe6d3f51f32d7d323U, 0x2c122c7fc9a512caU, 0x32d23b76c906fe3dU, 0x1bd4e52ff7294c02U,
  0xe4d835e77f198dc8U, 0xe70efc60fc6a21f4U, 0x2b982ed7e701fe2fU, 0xa8e441cf7a24e426U,
  0xd3f02519c17fee7fU, 0x5627c92ae0d3eea3U, 0x7fc2224bdbdbf909U, 0x4c19f6d1b7f61033U,
  0x5b0dd7a21200fd1cU, 0xd3245e9dcaec6b6U, 0x1ffa285308effca3U, 0xee1aee74cce637e5U,
  0x595173e52f82bf0U, 0xf6daefe5e04711fcU, 0xfb05359a09dc0f49U, 0x7e7e7c3fdf53ae8U,
  0x5d1fd608f2f6cbc9U, 0x4b37e5fc151d1ae5U, 0x1ade1d2ac6c52a22U, 0x1e280f1e35e72a0eU,
  0x16aff738d81e3808U, 0xe23149a70da5f807U, 0x46dfdf29fcd5145dU, 0x35e3aa01fefa0fdfU,
  0x37f013def8e3bf3bU, 0x7b70afdc4f21d32U, 0xb5d2030ee513bff0U, 0xa0f4a41074e904b0U,
  0x461efca81f246faU, 0xe4933e5063cad1dU, 0xe802e8b9b336322cU, 0x8185e705961c052dU,
  0x243bfb0432370759U, 0x31fc7fac5f0b80dU, 0x15bb3513d3daa0dbU, 0xe3ed40f9fe1dedeU,
  0x6b9dbd9f2fafc7fU, 0x1afae2ee03ff44f4U, 0x1405d5da5ff8ebf5U, 0xe416e8d50cc40d1aU,
  0x1e13af0cded8cbf4U, 0xafc43125423c058dU, 0x4dc3fbb0dcdca5a0U, 0x3bbe0be061167a1U,
  0x11f92602377f16cbU, 0xbd2be7e9c1ebd042U, 0x168133d1563f05caU, 0x44ffec122febf7f9U,
  0xb13f9061adbc353U, 0xed011d3ff445bfc4U, 0xfdafed130af5241cU, 0xf71cec11a66eb23cU,
  0x1dcbdf58e3e5d8c1U, 0x1ac0ebdde2cb4b1bU, 0xd65d813d08222319U, 0xe6de7ff67fcc9ef3U,
  0x1e0213bff7b5e3f2U, 0xc7b155e9c3e73247U, 0x776a22cea78ae7d8U, 0xbc20e1340a1381f3U,
  0x30ad0ee5de34ecd1U, 0xf7fcc1df2fdd88ecU, 0x51e9eaf3c0f32b11U, 0xf512312a0a071d20U,
  0xf637e27f4d25cc00U, 0x16e80b1dc02035d0U, 0xeded22a5041d5923U, 0xb51283f12b41268U,
  0xceffc1bfa41fc9e7U, 0x1b10c6e0f1f522e1U, 0x140e19f4193d4a01U, 0xfccf394be52715dfU,
  0xe9d62ac11e1a481eU, 0x510f5100f6051f65U, 0x412d5aff21c536cU, 0xb444ffbbe4f581a8U,
  0x595be2d13dec0ce6U, 0xfac33017fd7ffdf6U, 0xed08ce15e8e9cfc9U, 0xdb94c5e20b2335dfU,
  0xdeeeeeb1d2f2402dU, 0xf414c13943f7e1b6U, 0xdc57facdefcbeebbU, 0xd60e16c5230553e5U,
  0x6220e7343eff1009U, 0xdc0cb2e7a0c7bfcfU, 0x8b0efafc4e06f400U, 0x41d90129ade824a4U,
  0x2c4aeb3bc950ecc7U, 0xfbd75f30d8eec233U, 0x2aeef00edc079eeeU, 0xdb12fb1aed0b2128U,
  0x140ab72ddee20310U, 0x9c18fe214e19d8f7U, 0xa70e0efe9b28101dU, 0x230f0bbfd040ead5U,
  0x1c25e326150b25d2U, 0x1fceccfc31d43b57U, 0x3936df2130d7ddedU, 0xe8501ce3a94ffc09U,
  0x8192e89e2cf0b244U, 0x4d4675c620c8d8d5U, 0x4f91fd5e34318feU, 0xf521a629def9481cU,
  0x5d1311e7efff4337U, 0xec10d7d30d7f0316U, 0x1a7f83c480922d3U, 0xd9b1e1edc283e30U,
  0xdaa23744272c07e0U, 0x224e2a8bceef25fdU, 0x432609dfe02674ddU, 0x1e21da91dbfac311U,
  0x56f4db0ce2ec39c8U, 0x54fd089d0700abd8U, 0x102f09e6ff067f03U, 0x40d3d6003fdeaa64U,
  0x764b11c52e0b4ae8U, 0x54e3360df1bb22d6U, 0x22fbeff9099ae06fU, 0xdbacc09e1fb8c0c2U,
  0xd73ee081d47b1c35U, 0x4abd0437c2edf51bU, 0x24170bb6e61fcff8U, 0xde026e34f75ffe41U,
  0x23acf71200cbf124U, 0x8115fc3fd90f164dU, 0x3ff9021fe4100c3dU, 0xed830e08250206deU,
  0xed0a812f141d1b7fU, 0x3f1e33b9c3d320a6U, 0xfb0ef72e1c28014cU, 0x18111d3f15b82407U,
  0x7ed63e0e5144229U, 0xe0f5f5c89704850cU, 0x22e5f1e832b9c80bU, 0x6187f43e4c254a39U,
  0x1fc7edc7df5fe2a6U, 0xd37f5014f32c2015U, 0xfdc50ed918291a13U, 0x2e8f21de434b43cU,
  0xfffbe052fffb5663U, 0xffff7b28fffdfb31U, 0x7a920005d601U, 0xfffce0ea00058b64U,
  0x4fd7c000347d5U, 0x48ee50002151dU, 0xfff77aba0004a0cdU, 0x4cb87fffeae04U,
  0x17eea0000b9d1U, 0x377d3fffda933U, 0x64031fffbe283U, 0xfffec0b1fffdb1e7U,
  0xfffe0ac400067558U, 0x1e9a900013d46U, 0x2a143fffe8e54U, 0x31eda0000ad0cU,
  0x913dffff4a0dU, 0xffff20cafffdcffbU, 0xfffd7ca3fffeec06U, 0xfff967850003f396U,
  0xfffc90c2fffd33e9U, 0x4e292fffa37e3U, 0x579f6fffeccfcU, 0xfffea6a60006a15cU,
  0xaa07b84ce92bd033U, 0x37f021a51c065118U, 0xe42f241c3f2e0cedU, 0xae72fe544c5cde3U,
  0x420e2eb4ffe3201cU, 0xf7f967eacb7f01f7U, 0x463681cbf6d02e03U, 0xa3ea544a0e7136e0U,
  0xeb54fa42eb9823baU, 0x17bf24c6bce9ecd0U, 0x65d8de761f0be9f4U, 0x67d5a90b6b41f3feU,
  0x2d8f9e8d90a3f08U, 0x37e21e062018e5a3U, 0xfe11fb81194542e5U, 0x2e2310fc20c6dfeU,
  0xb6e738e0ecdcb236U, 0xee2ee03cc20e18efU, 0xe7fe02eefd809f2U, 0x4eaa0c2327f52ddeU,
  0x5e9f221e281c01ffU, 0xf51ff91bb5fee8c7U, 0x1bf6a6cb65c5e0ecU, 0xd5286bdd49fff3e9U,
  0x84c7fb08eaef0636U, 0x1c483b03ddd8da1aU, 0x6f0527092a8112f3U, 0x7db033800097b02U,
  0xd0ffcee7ab0d0a2fU, 0xeff0a61caf620be1U, 0x217f7cf1cd83cc9U, 0x3e1c38e61d7f73edU,
  0xf70ba52b17e03cdeU, 0xedc1ad4bf2f3cf5U, 0x2be9ef132f4b161bU, 0xcbe431e237f1399U,
  0x8179d1fc1d427f1U, 0xed0de2310ade20fbU, 0xf82eb11e4ef49225U, 0x153641f0e281133cU,
  0xe6fdf878ef0042c3U, 0x12060608bed30fe0U, 0xebdfe703cf0d81faU, 0x1251e3ee11755fbU,
  0xf64ef91fe1dd194aU, 0x260c0cb43499ff42U, 0xfae69bf9ed14f5fdU, 0xf02dd7d2e205ce3aU,
  0x211210eee3f1e8acU, 0x2e29810ed1da391eU, 0xddd6cb21c6a71aefU, 0x41072df31c42f1e8U,
  0xf133f81f12e3050bU, 0x2b02ef503af6128cU, 0x1232729b65b523fdU, 0xeb9f2b16e8303329U,
  0x2bf8eaf217e3d5e0U, 0xd4f4ef984ca9ed5U, 0x660b145c1b2f611eU, 0xc943810524fef23fU,
  0x30a2d6102d2cd17U, 0x4d11aa9913072966U, 0x3beedad730037208U, 0xceee0e17f396aebU,
  0xc2664f511f2cd08U, 0x4cfbb5c2ff22ac23U, 0xf41ae4c5350e2ea4U, 0xdecf53cd0e51a8dU,
  0xd20cd35514365ef9U, 0x2c205ad0f61c1526U, 0xe905f0f8ee9e22caU, 0x3cf731de08ac217fU,
  0x1f2a18c2e7d8f845U, 0xcc08eceae511049eU, 0x31d2fe231eba1331U, 0x11dfe3e3160e33ebU,
  0x1302ecfc14f00b2fU, 0x7fee0c212ba4dc5fU, 0x81f0bcfff1d402e5U, 0x401eee7d81a22fcU,
  0xfbc0e4316c1bd2beU, 0xc02e52fc510d10cU, 0x35191bc1a321c136U, 0x8c1e8d0d4e912e3U,
  0xd8e43ef00f030546U, 0x7f0ee2df16ebfae4U, 0x94f220aac1cf8f2U, 0x13e10ff30906171dU,
  0xfdf1fdd41ff1fce3U, 0xf52a280adf093c0eU, 0xc2e5f1dc182ed5ebU, 0x87db31ccccb822b1U,
  0xfef50a0ba0125af2U, 0xd129feec09e5c8d4U, 0x6ee58198ade204d2U, 0x1fd0bdd7f3fce8f9U,
  0x21d4c715372ddd34U, 0xf2ff405f528ff0eU, 0xbd3630730e0e4abU, 0x940416bc2d1ced7fU,
  0xd715d6e4040ed827U, 0xac0ffe744a742c3U, 0xf2ece70af5f4fdd5U, 0x4adf05ae3cfe04a2U,
  0x208140020fb910e0U, 0xeb09fbb4feffa326U, 0x450445123524d71eU, 0xce25f903faf629faU,
  0x13d02300660b17f4U, 0xfdfbaddd5489f318U, 0x2a7f550804e4c5d2U, 0x533361c37f9e369U,
  0xe4e4211149dd5e2U, 0xfa271a2b2e4f4a15U, 0xcf0aeba43a41d31eU, 0xf5debedd97f0619U,
  0xe7681d369573c878U, 0x29e6082cb19f1806U, 0xc1175ada67c1fe87U, 0xd8ee4f18e6e83eb0U,
  0x33d3e31055c3121U, 0xff42dda803ef0704U, 0x36e61cef2ee52856U, 0xf9b8d01c14e12a81U,
  0xc904180a0533e51dU, 0xbcf2d91834effdb1U, 0xaf1dad1e7ea3e08U, 0x33f0d7f1f5e0c815U,
  0x3b042a65f91a6ff0U, 0x664abffca14f3ddU, 0x6abbc59dd57cad3U, 0xe9f0303933c32a81U,
  0x88fe46e006ede406U, 0x580036413d270e25U, 0x2460133e07d3ff51U, 0x5a15f2ca62c67fc6U,
  0x401ee646e65edcbdU, 0x3dcc14f513ccb2edU, 0x8d0edf41f5f74a67U, 0x24df232f642e2af6U,
  0xdff321b6ff013c59U, 0x7065060229033f3dU, 0xcbbfdbba0c1cfd81U, 0xa51b4203005b0763U,
  0xe3ee9b16f8e9d255U, 0x2609e9bde7cee9deU, 0xfbdd010e1ddde3f4U, 0x81f62d2ffff52be0U,
  0x14fe05fbd8e73ad3U, 0x3240c4e072e1fd1U, 0xccefa1e2c9bf07f6U, 0xd9fa2dc82223d89eU,
  0xe1f134e5011526f4U, 0xf53d01270504d7e4U, 0x23d630381c099c1fU, 0xe8e4fbbfbe2781d9U,
  0x992f5df2d634fb26U, 0x49f5fce4d702342bU, 0x19e045bb0c0007d4U, 0xee0a03ca52b82010U,
  0x89c92727077f3d4dU, 0xa5f13031c25deddU, 0x247f0bfa0d3ce70fU, 0x2cea1ef119cc083cU,
  0xce1b22d155301524U, 0xecdbc42efce1101dU, 0x280434bff51f2b40U, 0xccbbf1e15c63129U,
  0xf6d635c50ff9a7d2U, 0xd42bff17fbfbbe57U, 0xcb022b34fd574945U, 0xf1111d0811ede12dU,
  0x3332a6fe27bd170aU, 0xfbb8bb8117c2f2c8U, 0x18151c4c06d812baU, 0xe2e83adc0922dd38U,
  0x250afbb11027fcdeU, 0x1db236bdb834100aU, 0x7f3618eaf6412228U, 0xd9bbcf9f493f1de4U,
  0x7c3b1e8ad0fff0aaU, 0x11215a28fe056223U, 0x1905bafbdeb90f4fU, 0xe9810110460a910fU,
  0x151da8e0d714ce1fU, 0x388a0b3a0135b3cdU, 0xc27528e1c031199U, 0x2bdcf2023b0af9baU,
  0xecdbea3334de1823U, 0x26fb2d81c201fdd9U, 0xdf1b1ada1cb7fe3bU, 0xbeb8d7bfc1eeb4f4U,
  0x1f0421ef6d0b04f4U, 0x2135ca3932b2df21U, 0xd8bec009111f42c0U, 0xde7f0ec802f294d9U,
  0xa86e92ad6e1af25U, 0x65ff3afc43fee36fU, 0x18c8dfe4d4ea29d5U, 0xf006d837b2a217f7U,
  0xf8ac25bfd7e2f739U, 0x7f06190bfecf4931U, 0xeb171619b3195c17U, 0xd6eae30df3fe25f3U,
  0xebcdeaf036e6bcc5U, 0xbdd1670d69a736e3U, 0xf3fb5ad7d0c9f52aU, 0xfcccc5198d99ff54U,
  0x51b37ff502eed104U, 0xfed50ec4e15ece3U, 0x2964adfad1ee2f11U, 0xbe27f015086646daU,
  0x117bcfefb0a057fU, 0x380b26cfdceeb927U, 0x19c91216f4fdcdeaU, 0x61ed1bcccfc5ed04U,
  0x17b744138103eb20U, 0x1317d6dd0df32b33U, 0x53f5ef09bdc1f216U, 0x1010f6143e0800d9U,
  0xd9d5e0e6da2afeeaU, 0xd3cfd233f0dcde8U, 0x21e136213d81f5caU, 0x48dbded904cee9d6U,
  0x1011fb22e342f3fcU, 0x24e3dbee04e4dde3U, 0xe3caf816e30cbaU, 0xe3f0160b11e6b20cU,
  0x122c112b0d3da0e8U, 0x4e3f813e3121609U, 0x33e103c405febdf7U, 0xf621c53a5c3a31daU,
  0x960700d8d9f51ceaU, 0x20c7816e1decbd3dU, 0x235a318702c76a0cU, 0x7f5714ea2ad6f075U,
  0xd3b0074a1be694f2U, 0x30d70ccaddfc2cecU, 0x38d3370aa229f5afU, 0xa5c051103c8e813U,
  0x2aa06275d7fe4f3U, 0xef21190bd7e4d798U, 0x2aefc2ae9cc4f20U, 0xdb1339f55b670cf3U,
  0x242c302c072ce81cU, 0x282a3a251d40d154U, 0xe2ed1f6ef9e18c9U, 0x53d435520d17f146U,
  0x21faa0c6d8e50960U, 0x43aa2e818c44cb01U, 0x33bd03462ec5e1bcU, 0x144341baf2c31132U,
  0x36c90d24fee3da14U, 0xe4b1f106e608f21bU, 0x294df8dd24f4ddffU, 0xda2e15e7f7d9dd2bU,
  0xc3c91df64107e511U, 0x3dee80e7fef23e0U, 0xe4b717d6eb4a387fU, 0x60de246af6322922U,
  0xa2ed2fb5bc13d7d2U, 0xf818e3d8c938393eU, 0xcd29ec0df4030a6fU, 0xe54a350d4af40c69U,
  0xf3bce90ce72fdb07U, 0x500a5ca020206a1U, 0x2a30fd000d257f4fU, 0xf801d6fdec1425d4U,
  0x29171a0da8c702c3U, 0x19d05e242213130U, 0xedd8f0678c03e701U, 0x1900712abb01e4U,
  0x2f5ccc9b3bebcb24U, 0xca7ed21fc4c6e1U, 0xf63d65c4c1f1c7e0U, 0xfaf3cc7f09470ff3U,
  0xf12dd6440c037fdeU, 0x20ec01f54cdaf7b8U, 0xcb2bd55b0dec4dffU, 0xeb2610ebfcf4f730U,
  0x9f002b6e5939be1U, 0x662240f6f73033efU, 0xf82516e199ebe7c4U, 0x8dbef0b0f413bd5U,
  0xbce74f3b3324facdU, 0xff0e01192312e236U, 0x8f4cc493420fe20U, 0x3f3bd7fee4b266dU,
  0x7200000060U, 0x6900000061U, 0x580000006fU, 0x5200000073U,
  0x7600000057U, 0x7000000067U, 0x5300000058U, 0x640000003aU,
  0x6400000070U, 0x8400000079U, 0x6700000048U, 0x700000007fU,
  0x6c00000051U, 0x420000006bU, 0x7200000067U, 0x610000007cU,
  0x5c00000070U, 0x5600000062U, 0x5300000045U, 0x690000005aU,
  0x7f00000058U, 0x6800000047U, 0x7f00000055U, 0x4d00000059U,
  0x90112cf022909ffU, 0x1c7fe808ba030cb3U, 0xa8a7e4bc23dbc935U, 0xf84118c72b4f4afdU,
  0x1b2f5df4f3f67f0dU, 0x257133d62cd32b0eU, 0x8d79f3f11e03cbd8U, 0x7625b0e688e62c15U,
  0xd1a91213e0f9f1fdU, 0xb1fd8ebb9ab1ce7U, 0x2dbbc11417201139U, 0x7f926aa5de1623cU,
  0xd1edb6d3cfde0612U, 0xf609db230da29513U, 0x24d802eaecc1192aU, 0xe30cc82717b5fb94U,
  0xe0010fcdff2c0914U, 0x15ad3162cd4fc42U, 0xf1f3320407e401faU, 0x57e6dc13d1750adcU,
  0x83c1ee4e09f80cd5U, 0x9721382e5ef8d734U, 0xf2e8272a1c82bd14U, 0x81121826db000f40U,
  0xf9e80a038111b836U, 0xb4f1951817bcf068U, 0x3a597fc50c13fb12U, 0xc68dce562b25de1cU,
  0xef3de63c21e4462bU, 0x22e0ee8110f5e0e9U, 0xf7df6e1cda3fd14bU, 0x301e0b0fb9f47a1fU,
  0xc4bc21f014c1d0c4U, 0x3a1e12c1c50e04f8U, 0xe9cb203b722cf902U, 0x2f92ab87a1539ffU,
  0xe70827edba0551edU, 0xf307d23b871aa1b1U, 0xb9261b201be424f8U, 0x27d6d6b73cc2f336U,
  0x74acf2e3e031dbebU, 0x151deb0112042009U, 0x19273114e8ce6ac0U, 0xfacadff59ffaf4d6U,
  0x263c055cf1ef1ba9U, 0x1d0aa205eeb120b1U, 0x2c19c1d5f081da4dU, 0xfff1ff0c172748dfU,
  0x354a27d826ddff25U, 0xf6004bafe4eeeffaU, 0x23eb3fe240c3eef5U, 0x381f37ded98991f0U,
  0xf7eaef221ff125ecU, 0x2641224e3201fb13U, 0xf71e0eb7fdf627eaU, 0xdbff292f340f04d7U,
  0x1e77d3b8eeecf88dU, 0xea0ffca502a2131eU, 0xb1c51cb1ff8db84cU, 0x4c05743ed21b09fbU,
  0xf73f99111fb83c41U, 0x636fc40c01bc9f3U, 0x43ecc45ecc1264dU, 0xb92df1e6f5d1eabU,
  0xefdef9e12143e504U, 0x8607fdffe9fd0429U, 0x12e0f329d4185b32U, 0x3fcdb01749e45e3fU,
  0xa00ec72ea252cf3U, 0xe607cc6405cef5ffU, 0x1e2a4317d331e2d5U, 0xea20304ee7c3ae7fU,
  0xc67af700dc401133U, 0xe0c1c55f444ef57fU, 0x2b09fbfcf1d207fcU, 0x9abc0bfc37f20f21U,
  0xe3fcfbfbe7c70e0eU, 0xf4fef4327fec3dd7U, 0xe2812bcfebf6cec2U, 0x724f1de5cb04f92cU,
  0x1dc1067807705e23U, 0x344bd4ebe24cd03aU, 0x44ff331f8173d1f9U, 0xdbfb06a4ee29fec9U,
  0xeaedf61d11e11ae9U, 0x171b23fd03370181U, 0xfcf0fc58b12eba91U, 0x12ea0fc849dcd708U,
  0xb6fbd317ab1c210aU, 0x3b2ae0d6d4d6ed2eU, 0xe5f42312fc811b1bU, 0x250afa2418d92801U,
  0xe029ce340252e3b8U, 0xdc18e4e0f94015b1U, 0xf4cb2cd30d19fbffU, 0xde25dc9e2b1b23d4U,
  0xf8dccbed25a5c97fU, 0xb9f016aeebfa17ffU, 0x2c8acbeae9f40828U, 0xf49ea5241481d314U,
  0xe92529dd4c02e1fbU, 0x1ed2fd0ddde6fdbcU, 0xe84633cc0d0d84c2U, 0xdffb10f5295f1f54U,
  0x3203fafb07bc19fdU, 0xe0a5f1e113ece684U, 0x174ef257e7102e2bU, 0x4af6b7666db4788bU,
  0x67f51afef89fd724U, 0xed008f03e81af5beU, 0x278f013881ea213aU, 0xc8da3bf019f0ccbaU,
  0xcb52cff7d516c2c3U, 0xd8e7d091500dfd31U, 0xfa53ff384922edd5U, 0x52a4c17593cfec3cU,
  0xf22dcc21ce0cf8e6U, 0x42ed8331df13ede9U, 0xd4deb03127e5a9ccU, 0xd1bf101fa3f46424U,
  0xd2e459bfca0b09f2U, 0x21f25eecfe2d946U, 0x44fef1b2a2ceb29U, 0xc8230a2b0512eb4eU,
  0x7037afde34e1038U, 0x2b1e37046411adfcU, 0xca4d2020da6d8f1U, 0xc13e0c7f50813100U,
  0xb5106cb00ef317dU, 0xcb2201e3f257ec2eU, 0x560ee80f112e37d4U, 0xdf07c6ffd813120aU,
  0xfff6d2d8f626fa07U, 0x20f424f660f8e3f4U, 0xd1193a0e08e83f11U, 0x6a4c62303ea1808U,
  0x9be6f1b1490e3723U, 0xff06204134460408U, 0xcbb3e2e0cd0bcd18U, 0xb8d2f13e47370ebfU,
  0x1d38f8e6f23001dbU, 0x36d52b59323bf2f3U, 0x2628860bf1e7f508U, 0xc4f7e0a4ca0c020aU,
  0x46371bfd173cc3fdU, 0xd306c683c520209dU, 0xe27b2efbbd33e72bU, 0xe1b2680dee171d21U,
  0x4e07ebb75a06cd32U, 0xe92ed51eb528505aU, 0x4f0ad50aec3fff35U, 0x6c7d6142ed681d1U,
  0x68b9d60b4dcbeffdU, 0x8e24f41a47befff9U, 0x2dfdf8fe14cbf50cU, 0x36e079ef3034f23eU,
  0xf8942114451e322aU, 0xddef0221d729ead7U, 0x15ff07b21867d70eU, 0xf0b17f2d14aff7a4U,
  0xe7157f22fe950d05U, 0xeadfffd24a10bfe3U, 0xf42fe6f00d0c5403U, 0x81c4de1af9324bdbU,
  0xe509f8cccd2bfcf0U, 0xf70fd3d83b001330U, 0x35201252a5f5cbe5U, 0xe1de21936e7f1bbfU,
  0xfabaf5fbdbd0b0a5U, 0x6a08fffa5b2d17fdU, 0xd4f54911dee41244U, 0xc61d3fc194809d8U,
  0x1ffb9902fcf5d60fU, 0xd2ef12d7ebf30a42U, 0xdf3ed2f19e3ef1cfU, 0xd2224aafc605ea65U,
  0xab39ef36ff14ea95U, 0xc481c424fd08fcc9U, 0x15f8bcfc34e7c7ebU, 0xf9f5c1e6e812adecU,
  0xcf09fe85fadb48feU, 0xdd391e39fffaf0bfU, 0xa856bf683b0121e3U, 0x624f03fdc4d0504U,
  0x5509332716905f14U, 0xdeebd0f2dbfe1ddfU, 0x33daf7a7fafd563cU, 0x5d61d4b53d4eb74U,
  0xe070f6b03cd7eff9U, 0x29dbd1ef20acca30U, 0xdfc811d8030e0d17U, 0x4bdff1feb03ffb3U,
  0x440e63fd260d20fdU, 0xd51f19e7ec11c0b3U, 0x1d12d20ca5bb4ce0U, 0xe5fed90f3726d9f8U,
  0xcc7f2bfcf81a33efU, 0xe6e714c9c419382eU, 0x15d6a043124cb1aU, 0xeafd06cadbb59c1bU,
  0xe197e5d89445ccf7U, 0x25b55110fadccdf7U, 0xe5fc54e819b721f8U, 0xfcee0e16562f3419U,
  0x2120bdde212928d7U, 0x321300af262f282dU, 0xe805dd18fbf8d7f5U, 0xe64cff37f1fa2be4U,
  0x491075214cc6c51cU, 0xbdea2f1eeef80d01U, 0xfd4ef4afcf02c901U, 0xf2e14b18fbea3014U,
  0xaef9f520c2e61828U, 0x5836cbe3e7c14165U, 0x18116a02fae20afdU, 0x16110da6c23ffd0cU,
  0xff71cc16e4c5eff2U, 0x9fb1f027f535033U, 0x30c9270602f2b732U, 0x5b7dc384cf6c846U,
  0xc70f521ce7e8ec11U, 0x1f29f5345fe9a138U, 0x1ce9dee1230ee10cU, 0xfd12810dee183715U,
  0xee7fc6e20eed966U, 0x3e452b4d1b272931U, 0x1dba16d6f20005edU, 0x19efb72f704610dbU,
  0xc7aa907fc51281e3U, 0x1f6f213e33aaca5U, 0xc9ebe940e5f406e1U, 0x7f7121d0fe1e1931U,
  0xc5082233ff6cf6f2U, 0xcf15dbcbdcf217d2U, 0xf028d9202f09a242U, 0xdf11215ce4b1d837U,
  0x7fee44dd0de9f2c2U, 0xd123b8320961feddU, 0xd0e50b44cd0a9a06U, 0xee9e7f3247335c16U,
  0x36d416f0ffb89d40U, 0xdaf802688bf7cfffU, 0x10354d81bec4ddffU, 0x215d61956475c08U,
  0x83f8fcfbeaf11df7U, 0xdf21e6204f1fcd0bU, 0xd40dd3db2ff4f446U, 0xa0f447262f0d07ffU,
  0xf0cff117112426cfU, 0x1bc1cad47e370a26U, 0x1eee34f7dc5c3526U, 0x597af7e9dfe44bedU,
  0xf1a8e708dd13a70aU, 0x7eefecd68f0aeebU, 0x2ba5e87a10d03d40U, 0x6b20b3bfa51fe0dU,
  0x1ac433f20ef6a913U, 0xe07f2ffa2bf4ea72U, 0x812e2f1bfff811feU, 0xc013301a1ad93325U,
  0xcef5e9d214150e47U, 0x1ffb21816329e826U, 0x912edc7ff9f90712U, 0xb90ce3ed02f929f2U,
  0xf5f0023ddbf74e06U, 0x1fe8ade60cf4c20dU, 0x387f40df52e1d6d1U, 0xd614000ff03f0b23U,
  0xefcd3b0debff09d1U, 0xf210e25fd8c1eb02U, 0x2a167f07f8c039f9U, 0x8de0de1503cf31f2U,
  0x2c6bc51af68196f7U, 0xf50c2556ecf5e22eU, 0x8103d63afbc00aedU, 0xe3181104b7261726U,
  0xf52d2621c3cf5dfbU, 0xc11b208f3d7e125U, 0xf303ed1d28f0812aU, 0x19d837cdf1e6f081U,
  0x83104e315c0160eU, 0x1fcbac3e2f2f7ffaU, 0x97eaeae90e50e62cU, 0x87eefed1321811cfU,
  0xfa1a13f6affeeb2eU, 0x1cb9bafe81da17e2U, 0xa109c4e8185a117fU, 0xeb36331b3bd6efacU,
  0x3da2aad2a8fccc29U, 0x940b0126d9178a11U, 0x53efe53b01dbd981U, 0xe720a2ff1b9c7f1fU,
  0xc81ef7023eefe5f8U, 0xfbf303ef32d7a512U, 0x148b5fffe610aU, 0x105dd000121faU,
  0xffffef510001b96fU, 0x86ebffff89b6U, 0x12ae0ffffde59U, 0x56ddffffd9f5U,
  0x225d2fffde959U, 0x2451500003e23U, 0x86ba000062e4U, 0x1c25800017ad9U,
  0x7853fffe54f3U, 0xffffa448fffea0adU, 0x6a6a00003918U, 0xfffcc8c800005f2aU,
  0x1c975fffebe77U, 0x757c00025cd3U, 0xbee9fffdfc1dU, 0xffff68c80000bb83U,
  0xfffe217cffff4de5U, 0x173d7ffff874cU, 0xfffd8f45fffe9ff2U, 0xfffca4fbfffedb71U,
  0xffff6f9e0000ec9fU, 0x1997cffffb783U, 0x10c8ebf130ecbf2fU, 0x6438fbbb1b93c289U,
  0xfb7eb8db020d7f03U, 0x45efb04a8f8bcfeU, 0x1ab1c3d9cea50903U, 0xf4be4e1906ee18e1U,
  0x8fc411deafead6eU, 0x36cf58dc01273003U, 0x9a11dde28c952aefU, 0xe5fcb209fd20f1c7U,
  0xd5fddf162f7f2befU, 0x7fca249201be8fbU, 0x17cc0545db81f573U, 0x9220af403fb0ca2U,
  0xfbed0ea610bacf10U, 0xec4c5b3e0d3e2b3eU, 0xaafefd1bc601b515U, 0x10fecef4ed0bf9eaU,
  0xed3e0203d151112U, 0x2304eeb60200570eU, 0x16cec1e706e3e836U, 0x3cd281d8dad911eaU,
  0xf0180b24fa20dfbdU, 0xfae9b9020cebd0edU, 0x1e0ce1fb440226e7U, 0xca1bf7d03eebc839U,
  0xed09001a1c29130cU, 0xfec5362301987ff8U, 0xb82a3efd428b1405U, 0x1dfc5c40efdc1031U,
  0x11dacd3019dcb8bdU, 0x7ae83a45dbfb1b01U, 0x7f12fe38c80cef76U, 0x95d7e4fba9283502U,
  0xdde7a0b64924c5d0U, 0xce163d075605f7f8U, 0x78382aedbec16dcaU, 0x5e00542977e2a23aU,
  0xa999ed1aef567f12U, 0xe0b16273ae23fd15U, 0xf5ccb20bb8bfa6e3U, 0x71d4625908abe20cU,
  0x98f30009360824ecU, 0x49eb93050158ed11U, 0xb4a7f3f2c904e317U, 0x21bef5dd0c5914f2U,
  0xeacb34c115f7fbe9U, 0x7f0f02ad0794bbe6U, 0x719ca2cea40ebd6U, 0xd2ced745bd2a2156U,
  0x93aa1cfdc4a71ae6U, 0xdd532022260cefc2U, 0x483fe1e7c812636U, 0xe90bf22812e923bdU,
  0x43e8853548dffd20U, 0x132c83142bf5fe0eU, 0xdb70e21becbfcf7fU, 0xcf104b1f1039b50fU,
  0xe136150efe0e0c37U, 0xfc2e0472151e0ce8U, 0xfc5e3b73f95beeecU, 0x43243fe267cb5911U,
  0x1a44f50510af2534U, 0x4512a02dd7f51d2U, 0x3c0c062bfaf11c09U, 0xc1cb10cc9541af0cU,
  0x8afce8d4013438e2U, 0x5c233b1d7f5702d4U, 0x971ee4b32d3570f1U, 0x72ed3437c2265824U,
  0xc5d1f220d02caa1bU, 0xe11eb1d3210bf6dU, 0xf0f91e9081ff344cU, 0x171021f04704d9feU,
  0xedd2f507ef33171aU, 0x1dbff2eb0dfd0e1dU, 0xe100d426da21090eU, 0x10f9daac34fb3132U,
  0xf3074732c2117fc6U, 0x2dd2dcb7d1f61371U, 0xbc40c6fb2cf06d00U, 0x1004fd06b32a2596U,
  0xfcfd0235b1b4a48dU, 0x4d20bda9f6c55dcdU, 0x320956d16b37fa56U, 0xfae850e759bf28c5U,
  0x55190d31f820a5c9U, 0x24c7cdcfe4ebed9fU, 0x627af3f5df0c91e7U, 0x812187fdf61281aU,
  0x218157d2cf1ae248U, 0xef12da27eca70046U, 0xcc0a07e20c442031U, 0x2725b521d10343caU,
  0x3c168a17b7dc1e43U, 0x181cde2ef4136433U, 0x1ca7e42b1ceec8fcU, 0xfa32d6cc2032eba9U,
  0xedafa9fdc0a0019U, 0xca7fdbe87512defcU, 0xf908f5f606eaa6d3U, 0x214e2240f9f5bb3aU,
  0x1ce592d439d1ecc2U, 0x30f27f2bfc342216U, 0x58c6995855a809bdU, 0xf5eea93558e6f72eU,
  0xd9fd01650fed6affU, 0x2fdddc35395f0fe4U, 0x5ff143e324dfa77U, 0xb7f1421d0f0dfc40U,
  0xf9d019fb3010d118U, 0x7f05de2823b2e819U, 0x2f060ff90429d749U, 0xfd4c06d10fd73821U,
  0xdd22f03d1607c914U, 0xf2e8fedcfdfa05cdU, 0xcf713dc5a2629f9U, 0xe167b2f4fec2e0e1U,
  0xd6e9e0d536410cf8U, 0x29aaf7075e27d781U, 0x99e90a10f5d6fba2U, 0xecfabf5e30aacU,
  0x9daf4c1af6ffaf39U, 0x26eeb537542ff365U, 0xa7dfa929fc3ba360U, 0x7fd309144208d306U,
  0xc6f4181b36fd1b31U, 0x2eea33e63337df3bU, 0xc263f3348fcee00U, 0xe400eb2813d5ff4eU,
  0xebd6e3ff10f7c3e7U, 0x1c4ec5391e337ffaU, 0xa9ea6a45d92c33e7U, 0x533c15e782dfb33bU,
  0x93853ccaead2f3c1U, 0x3edd6caec77ffbf5U, 0x3327381e9e39f6f6U, 0xd5cd730ef6c922dU,
  0xcbff200f46cc1254U, 0x160b1d03df7f13edU, 0x22081fe11741fc26U, 0x45faaf12c624da29U,
  0x9e0ed00d18f1ed3cU, 0x961df30e161556fcU, 0x813c3335e1267ae7U, 0xdba93d2af0e2e7f8U,
  0x2c133551debc0ac5U, 0xd747bdeb04d2ccd1U, 0xf6c71d47a313d7e1U, 0xaa28bf0f0a05240aU,
  0x1e5af8d91804e35fU, 0xa522ef2004ad3a3dU, 0xe2ddbaee20a2cf6U, 0x130acd0d0c6f006U,
  0xf834bfd37f47c60bU, 0x133de7fb453e36f7U, 0xcd0eedc431130eeaU, 0xed5b65c87fd61f21U,
  0xdf15f4c0540a0136U, 0x70ae7e9f61ed6faU, 0x400903c31413fbf0U, 0xcb10002fae223faU,
  0x2a774601fcbc054eU, 0xbbc1cc07d58130fcU, 0xdad16c1bd55235d1U, 0xe53e2f1529248b1fU,
  0x4bfd2423fb02d112U, 0x5ddee996f5ba2f61U, 0xe11710fc1417f14cU, 0x4727511cdb1bee9eU,
  0x2301ed06609ed10U, 0x5e5042e32648e231U, 0x81f3c0b240d11d53U, 0x2f58fafa07ed05b4U,
  0xa581c73c2ff3f9U, 0xc6f7c60107cf26e7U, 0x2dc43218e5f11cU, 0x240f36c208aba9e8U,
  0xb754a8eb1feb9ee1U, 0xc9e70726e61ff0f5U, 0xcfb503f9eff6e270U, 0xf8cd561ce8259cd9U,
  0xcacd1c125081d72eU, 0xa431f1505b98f827U, 0x3cbcc16736573bd7U, 0xc320bdee5bfd57c0U,
  0xc1e2d70cfa4fec0dU, 0x27e41de2f9d30e81U, 0xf511df07fafc4eddU, 0x1a272f2d9107bce5U,
  0xcfd3ead333282812U, 0x4423ca0505ce1f12U, 0x1c11c510fb9c382aU, 0x501f0f1ef1fd1838U,
  0xacad50881d6b810U, 0xff1fdab269d3f909U, 0x90d710c2dcda1ac5U, 0x482bb4551705bf37U,
  0xf8e7e913efe18142U, 0x1ef2302463c4e136U, 0xf8d1403402ed2cc3U, 0x3b24d4d8e73ad7acU,
  0x18fb22cc2ac64204U, 0x180e50d50cbddbe1U, 0x5211bba40d9c7bfU, 0xd252802b8dcf4ffU,
  0x381bdaf3f9d60611U, 0x225c01d043f95c3aU, 0x1cabc110c9541626U, 0x79f981e60d9ee5c1U,
  0x2aea07de16181636U, 0x50dd43536cd81c1U, 0xf9063efb3d5219cdU, 0x5e02257c5ca83b5aU,
  0x477828614fdc40d2U, 0x30d04123db25ecd1U, 0xd11beafd73cda728U, 0x2fe9404a136429faU,
  0xece9f2fab09d4edcU, 0xde03e3b0f41da136U, 0xca34cffcdbe881bbU, 0x28c912650632f9e1U,
  0x1d0dda55f2d95ad1U, 0xce631c181e0be0ebU, 0x6030af53d228133U, 0xed7fe22f002f64b0U,
  0x421c2b2d0704ca10U, 0x2429738fa8b095eU, 0xc3dad4e9edcfc49aU, 0x245e3af404201c3dU,
  0x29e181bd3a9d4647U, 0x49020eed15104014U, 0xc1622e2ec203df34U, 0x3909b4a273118caeU,
  0xe0f2a693fdaf832U, 0x2d749cc4fcb29d02U, 0x6f30f0d9cf5ceb3U, 0x29fe3ad58158fd6aU,
  0x3f3907ef2cd8d8d5U, 0x38254fe1e7f20f04U, 0xa0bc196f3e3497fU, 0xf21efeda56242b50U,
  0x11f11009d921cbe7U, 0xd72a48e10b1b42U, 0xfdd118e72cd9e4ccU, 0xc01925c4c2d31318U,
  0x7edaf905f44ebd30U, 0xd32aa98100fb143dU, 0xbaf01df0c5f12f44U, 0xcb3804c523f6a3f1U,
  0xc6c95ff917d3f5fbU, 0x13053dae4049f8faU, 0x813c29f73b28e924U, 0x52df41ef113009d3U,
  0x15cb332bdffc374aU, 0xc8d119eeda24bafbU, 0x21234af9d85bd9a7U, 0xfc30ed67f00f0691U,
  0x6d1ae3c2bbeadc16U, 0x180eeb3edc4569e0U, 0xf254ecf90c44f5d3U, 0xacdd9538d3fa0ee9U,
  0x3c2814f936d169cU, 0x3afc2546e72a45a1U, 0x51c7dc9fd2fe4d3aU, 0xfc03112e06ee04dbU,
  0xf610be02ec087f38U, 0xdda2ed925125f021U, 0x4321adde34cd97fdU, 0xdd05312fdd55f7e3U,
  0x2c54848b613c0edU, 0xc7019429813530b4U, 0x32e7d1ba1d3e6146U, 0xd1dba9bae7fcf0f3U,
  0xe1f6c8fcecf0a1d1U, 0x4364e8f31bf5ec4bU, 0xcbcff0e343d86d9dU, 0xc9f0d7dbd9f4f6U,
  0xb4fa2effe055e2a6U, 0x8110edf8c753f03bU, 0x4a1de129fb56222aU, 0x5497b9200ff211f6U,
  0x34da131e40ddf24dU, 0x71e07ff9ad8fe0dU, 0x10190efdb3ebccf2U, 0xd5413ffbdd8f959U,
  0x1c7ff5ee02291c11U, 0xd182e2c08e0feeaU, 0x18bb000046d9U, 0x388a00002d1dU,
  0x1394ffff9a60U, 0x44a3ffffce12U, 0xffff9e4b0000282cU, 0xffffaeebffff8a40U,
  0x30770000007aU, 0xffffe546ffffa8dbU, 0xffffaadb00002880U, 0x25abffff7574U,
  0xffff84e400002f2bU, 0xffffc8ce00001b4bU, 0xffffe49000002a24U, 0xffffdb1bffffd211U,
  0x67fcffffb17bU, 0x296efffff873U, 0x41700002cf1U, 0xffff524e000014b2U,
  0xffffa40c00003301U, 0xfffff51b00001da5U, 0x1601ffffe93aU, 0x147bffffda4eU,
  0x6e3800000981U, 0xffffd00700002744U, 0x192c0000481dU, 0x398d00002decU,
  0x13eeffff988fU, 0x45ddffffcd2eU, 0xffff9c8c000028e4U, 0xffffad78ffff8825U,
  0x31550000007dU, 0xffffe4ccffffa74cU, 0xffffa9560000293aU, 0x2657ffff72faU,
  0xffff82b100003003U, 0xffffc7d200001bc8U, 0xffffe41300002ae4U, 0xffffda73ffffd13fU,
  0x69d8ffffb014U, 0x2a2cfffff850U, 0x42a00002dbeU, 0xffff4f3300001511U,
  0xffffa267000033eaU, 0xfffff4e900001e2dU, 0x1666ffffe8d1U, 0x14d9ffffd9a2U,
  0x7031000009adU, 0xffffcf2c000027f8U, 0x190a000047bdU, 0x394000002daeU,
  0x13d3ffff9919U, 0x4580ffffcd72U, 0xffff9d10000028aeU, 0xffffade6ffff88c5U,
  0x31130000007cU, 0xffffe4f0ffffa7c3U, 0xffffa9c900002903U, 0x2624ffff73b6U,
  0xffff835800002fc3U, 0xffffc81c00001ba3U, 0xffffe43800002aabU, 0xffffdaa5ffffd17dU,
  0x694bffffb07eU, 0x29f4fffff85bU, 0x42400002d81U, 0xffff501f000014f5U,
  0xffffa2e4000033a5U, 0xfffff4f800001e04U, 0x1648ffffe8f0U, 0x14bdffffd9d5U,
  0x6f9b000009a0U, 0xffffcf6d000027c2U, 0x190a000047bcU, 0x393f00002daeU,
  0x13d3ffff991bU, 0x457fffffcd72U, 0xffff9d12000028adU, 0xffffade8ffff88c7U,
  0x31120000007cU, 0xffffe4f0ffffa7c4U, 0xffffa9cb00002902U, 0x2624ffff73b8U,
  0xffff835a00002fc2U, 0xffffc81d00001ba3U, 0xffffe43800002aabU, 0xffffdaa5ffffd17eU,
  0x6949ffffb080U, 0x29f3fffff85bU, 0x42400002d80U, 0xffff5022000014f4U,
  0xffffa2e5000033a4U, 0xfffff4f800001e04U, 0x1648ffffe8f1U, 0x14bdffffd9d5U,
  0x6f99000009a0U, 0xffffcf6e000027c2U, 0x190b000047beU, 0x394100002dafU,
  0x13d3ffff9917U, 0x4582ffffcd71U, 0xffff9d0e000028aeU, 0xffffade5ffff88c3U,
  0x31140000007cU, 0xffffe4efffffa7c1U, 0xffffa9c800002904U, 0x2625ffff73b3U,
  0xffff835500002fc4U, 0xffffc81b00001ba4U, 0xffffe43700002aacU, 0xffffdaa4ffffd17cU,
  0x694dffffb07dU, 0x29f5fffff85aU, 0x42400002d82U, 0xffff501c000014f5U,
  0xffffa2e2000033a6U, 0xfffff4f800001e05U, 0x1649ffffe8f0U, 0x14beffffd9d4U,
  0x6f9d000009a0U, 0xffffcf6c000027c3U, 0x1909000047baU, 0x393d00002dacU,
  0x13d2ffff991eU, 0x457dffffcd74U, 0xffff9d15000028acU, 0xffffadeaffff88cbU,
  0x31110000007cU, 0xffffe4f1ffffa7c7U, 0xffffa9cd00002901U, 0x2623ffff73bcU,
  0xffff835e00002fc1U, 0xffffc81f00001ba2U, 0xffffe43900002aa9U, 0xffffdaa6ffffd17fU,
  0x6946ffffb082U, 0x29f2fffff85bU, 0x42400002d7fU, 0xffff5027000014f4U,
  0xffffa2e8000033a3U, 0xfffff4f900001e03U, 0x1647ffffe8f1U, 0x14bcffffd9d6U,
  0x6f960000099fU, 0xffffcf6f000027c0U, 0x190b000047bfU, 0x394100002db0U,
  0x13d3ffff9916U, 0x4582ffffcd70U, 0xffff9d0d000028afU, 0xffffade4ffff88c2U,
  0x31140000007cU, 0xffffe4efffffa7c0U, 0xffffa9c700002904U, 0x2625ffff73b2U,
  0xffff835400002fc5U, 0xffffc81b00001ba4U, 0xffffe43700002aacU, 0xffffdaa4ffffd17cU,
  0x694effffb07cU, 0x29f5fffff85aU, 0x42400002d82U, 0xffff501a000014f5U,
  0xffffa2e1000033a6U, 0xfffff4f800001e05U, 0x1649ffffe8f0U, 0x14beffffd9d4U,
  0x6f9e000009a0U, 0xffffcf6b000027c3U, 0x190a000047bdU, 0x394000002dafU,
  0x13d3ffff9918U, 0x4581ffffcd71U, 0xffff9d10000028aeU, 0xffffade6ffff88c4U,
  0x31130000007cU, 0xffffe4f0ffffa7c2U, 0xffffa9c900002903U, 0x2625ffff73b5U,
  0xffff835700002fc3U, 0xffffc81c00001ba3U, 0xffffe43800002aacU, 0xffffdaa5ffffd17dU,
  0x694bffffb07eU, 0x29f4fffff85bU, 0x42400002d81U, 0xffff501e000014f5U,
  0xffffa2e3000033a5U, 0xfffff4f800001e04U, 0x1648ffffe8f0U, 0x14bdffffd9d4U,
  0x6f9c000009a0U, 0xffffcf6d000027c2U, 0x190a000047bdU, 0x394000002daeU,
  0x13d3ffff9919U, 0x4580ffffcd72U, 0xffff9d10000028aeU, 0xffffade6ffff88c5U,
  0x31130000007cU, 0xffffe4f0ffffa7c3U, 0xffffa9c900002903U, 0x2624ffff73b6U,
  0xffff835800002fc3U, 0xffffc81c00001ba3U, 0xffffe43800002aabU, 0xffffdaa5ffffd17dU,
  0x694bffffb07fU, 0x29f4fffff85bU, 0x42400002d81U, 0xffff501f000014f5U,
  0xffffa2e4000033a5U, 0xfffff4f800001e04U, 0x1648ffffe8f0U, 0x14bdffffd9d5U,
  0x6f9b000009a0U, 0xffffcf6d000027c2U, 0x190a000047bcU, 0x393f00002dadU,
  0x13d3ffff991bU, 0x457fffffcd73U, 0xffff9d12000028adU, 0xffffade8ffff88c8U,
  0x31120000007cU, 0xffffe4f1ffffa7c5U, 0xffffa9cb00002902U, 0x2624ffff73b9U,
  0xffff835a00002fc2U, 0xffffc81e00001ba3U, 0xffffe43800002aaaU, 0xffffdaa6ffffd17eU,
  0x6949ffffb080U, 0x29f3fffff85bU, 0x42400002d80U, 0xffff5023000014f4U,
  0xffffa2e6000033a4U, 0xfffff4f800001e04U, 0x1648ffffe8f1U, 0x14bdffffd9d5U,
  0x6f99000009a0U, 0xffffcf6e000027c1U, 0x190b000047bfU, 0x394100002db0U,
  0x13d3ffff9916U, 0x4582ffffcd70U, 0xffff9d0e000028afU, 0xffffade4ffff88c2U,
  0x31140000007cU, 0xffffe4efffffa7c0U, 0xffffa9c700002904U, 0x2625ffff73b2U,
  0xffff835500002fc5U, 0xffffc81b00001ba4U, 0xffffe43700002aacU, 0xffffdaa4ffffd17cU,
  0x694effffb07dU, 0x29f5fffff85aU, 0x42400002d82U, 0xffff501a000014f5U,
  0xffffa2e1000033a6U, 0xfffff4f800001e05U, 0x1649ffffe8f0U, 0x14beffffd9d4U,
  0x6f9e000009a0U, 0xffffcf6c000027c3U, 0x19b000004999U, 0x3abb00002eddU,
  0x1456ffff966fU, 0x474dffffcc22U, 0xffff9a80000029bbU, 0xffffabc6ffff85aeU,
  0x32580000007fU, 0xffffe43cffffa579U, 0xffffa78e00002a13U, 0x2721ffff7014U,
  0xffff801d00003100U, 0xffffc6aa00001c5aU, 0xffffe38000002bc6U, 0xffffd9adffffd048U,
  0x6c05ffffae6fU, 0x2b0afffff828U, 0x44000002eafU, 0xffff4b9100001580U,
  0xffffa07a000034fcU, 0xfffff4af00001ecbU, 0x16dcffffe857U, 0x1547ffffd8d8U,
  0x727f000009e0U, 0xffffce2b000028caU, 0x1f0326ad4c4a2a1cU, 0x409c332e8c5d301U,
  0xf5e4f2efe704e7edU, 0x5c71e414e9eb12f1U, 0xc3f713471e17e809U, 0xa8f8e3e1cfc2fcf7U,
  0xf1dbf44d08d70216U, 0xf08abf0a13d31916U, 0xda201921f40ed837U, 0x36c9811cf2d313b6U,
  0xb5ebf70f2df5bcf4U, 0xf5a3500bd8d0de3cU, 0xafdfc110d11490bU, 0x21fdd2171a06a7c6U,
  0x1a30051c7fccd7d1U, 0xd8f1e20b312cf05cU, 0xcd8bcae1125e722U, 0xa6e932f707edfef3U,
  0x1288c2c8f22e031fU, 0x1730ddfffbc8ce09U, 0xdbd6fb0d1b1590a1U, 0xaf1decebfbf1ed04U,
  0xdb100dcdd0c50fd2U, 0xd21a1f0d39670813U, 0x21c5fef54926ed43U, 0xa9d267102cefe421U,
  0xeedd2dd8d74c19c6U, 0x7f7bcbeae5f6eaf4U, 0x27b611e4b4b30216U, 0x124b420e303d162cU,
  0xc0fad819d607275dU, 0xc446feb5641639feU, 0x2a1815136c041ee3U, 0x11f31dd5e5fbfacaU,
  0x2be83506e2f71207U, 0x4ff51aef20212f57U, 0x7c1420f3f8f3f8ceU, 0xa608cf30d34d433cU,
  0xfdf133e6054508faU, 0xcaef0af9273114c2U, 0xcd7f0ed3e2fb1e0aU, 0xa457e0fb9fea0363U,
  0xf444403fcfc2df56U, 0x4f702e91a7ecb0cU, 0x11155c17d0f448bcU, 0x5ffefb4ddcf9d14U,
  0xd8f9e9290dda90dbU, 0xba84de0ac2a174cbU, 0x291ed8d42902dd35U, 0xd3df51e431f7c23eU,
  0x8343804ee28403bU, 0x5efdea1af2241deaU, 0xd527f3013e0f5617U, 0xcbef2110dfdd43e7U,
  0x811adbdaddcbf031U, 0xd3cf121bad11f1aU, 0xd2c4dffe05c517fbU, 0xddb5241c12df3d28U,
  0x98c80cffd3ecf7f8U, 0x17e2c54f1b79e4c1U, 0x1159f2f7d91bd0c0U, 0xebc00b3e007bdf14U,
  0x20fc9a2c13e0e021U, 0x1ef1010e15023c39U, 0xdc2a2c0db7fac82eU, 0x2fcd0671ecf4657U,
  0xcc9b382a3ef8cebdU, 0x44e62eba3f08b936U, 0x2ffebb30371016c7U, 0x287037f533f50a14U,
  0x61df7ff328f431c9U, 0xd2431d302162ee2U, 0xee86f7e10afddcceU, 0x20394b98e1f41ef7U,
  0xcac5601ee219ccaU, 0xc8d8ed11d52e23efU, 0x152711285e2306abU, 0xf9f3f4a1132414eaU,
  0x41c4ee37d4da1003U, 0xee3005b2b206f0ceU, 0x5c33d0fd8ec7b81U, 0xf4cb14fcfd0053c9U,
  0xb142d5f7300c20cdU, 0xd6fac7e7f10fd6dbU, 0x1eddcfb610f0a620U, 0xe9febbe615a0bb19U,
  0x13fd07fccad5be12U, 0xeab6f8eac0e3e2e6U, 0x3064b02ef13e9feU, 0xe2171cced2f6c804U,
  0x31f91b042b13bf53U, 0x14f220f001d44705U, 0x804d57fef11add2U, 0xeef3e6c10d26f231U,
  0xf600e1f13c002fd9U, 0x122507cb30c6b2e0U, 0xd1fa28e3cde819ddU, 0xd03157132390f0c6U,
  0x22e44a2b11aecfbU, 0xe702ab1e2ad80c4aU, 0xde46ff7fbf1b0421U, 0xf22f16f51ee506e3U,
  0x4c9f1597c6ac54fbU, 0x68fa11e421f101dbU, 0x42f0ca142accd5ffU, 0x1d2c11136f6d124U,
  0xf5d4ff01086421ceU, 0x4af718ca562ce2f7U, 0xf713e3de08e2abecU, 0xbce61ab5e47feb12U,
  0x1cd13ef2cdd80072U, 0xbb3100113f1807dfU, 0x2eaf7f8bfb2dff0U, 0x6fa5050e2c18e349U,
  0xed2fc102e7f60f31U, 0xfe4e1ffe3f1e52dU, 0xfced3ae9b7362209U, 0x4ef6e812a44023bfU,
  0xeed4ecff28f64c28U, 0xdf3d4e21f9ed0d26U, 0x2705fdfd0ff30eceU, 0xe433db3821ddeb1cU,
  0x70efde438ff68d1U, 0xe3b20debf5f6001cU, 0x5cd61910f0c2290cU, 0xc626ea24fd01d933U,
  0x1f6c722220c7f0cU, 0xef3a0add0efebcd3U, 0x12bd063814e909ebU, 0xf1cae606e40a002dU,
  0xa5fd7fff31e09e4U, 0xf4200fa7f2ef3311U, 0x9acd49117f9f16d3U, 0xe22d23b482917feU,
  0xfb294ef80b1ff4f7U, 0xdcf1200cbba5e6b8U, 0xdc29e4f3da0b2a21U, 0xdf69e75ccd025ea5U,
  0xdae510c655f83fbdU, 0xe202688e5cedaa3eU, 0xf603f2c11f45f7b5U, 0xc3ea3d450c10cfcdU,
  0x2d4d244b329c42dbU, 0x1a1847cc1566172bU, 0xdf0de5da05d53809U, 0x2ae2ed343b031d4bU,
  0xedc3332309cb0d0aU, 0x66042eed18c4e9cfU, 0xef1f3f2d470fbad2U, 0x6190eef4ed5abe2U,
  0xae44037fde52ed3U, 0xcd15e5819407d513U, 0xd9f854fc381a160bU, 0xfa0741c6f5fc4529U,
  0xf4b24106b954f9daU, 0x31bd9ffefdbce821U, 0x64bede017190cf4U, 0xe812d7f82405e10eU,
  0x2bc914f62acfecd8U, 0x40390a21044cecfaU, 0x1c1513d3bcd310U, 0xcab11dbf626bdd2U,
  0x110d0fdbfa367f17U, 0x6ef1b0e1923d4e2U, 0x5bef41534bc455cU, 0x20fd3802c7e703f9U,
  0xfee824d344310a0aU, 0xd61bd4f7392bcd12U, 0x5cf6f8c1581f70eeU, 0xeb0d51e03fec0d2fU,
  0x3801b7ee9f546505U, 0xe302622d81ef01f0U, 0x90ffeff661b1cf3U, 0xf200c1a69abe36cdU,
  0xfdd7dabf08faa206U, 0xec3ffb514f2c07faU, 0x25c6a7250dd1434aU, 0x5e12703900cecb4U,
  0xdb1ba8e7ef49081cU, 0xdc216928d81b4987U, 0x805e2b126dd30ffU, 0x2a13152cb81f0ee4U,
  0x38d1f7e61704f7e2U, 0x70b271e9f05e5ffU, 0xf71c24ebd8e2af9fU, 0xd1fa20fde648eda4U,
  0x12072b47c63ad412U, 0xdd0a29450b2e3410U, 0x7f23f7df2116bfa1U, 0x12e82014432d00e3U,
  0xc0ebf97e4fc26e8U, 0x3033f03fd7ebbcf3U, 0xd52120f9390df3f1U, 0x60dd6f5d72424deU,
  0xdf2cfbfc06e8dbd8U, 0x811925adf7d3f9feU, 0x25d61c211c1c08ffU, 0x1d1112edd1371e19U,
  0xd5e6da2d760cedf2U, 0xca02b3ee49201400U, 0x99f5410923daf7e8U, 0xe440c8e50ef2c7bdU,
  0x6fee61911e913c7U, 0xe8d5ee2dfc2d1e10U, 0xf62bcd2c0a3310e9U, 0x22d7c715011042bdU,
  0x151a0265d6f11beaU, 0x7f9f47dd5fddf271U, 0xcdfbdfd10e245e22U, 0xb20227ecc1e176bcU,
  0x1bf73f3bd610f64cU, 0x21f312634ddfd925U, 0xd53fce0d1506d9a9U, 0x1899de0d6e9be001U,
  0xf70e2ffef3e2004cU, 0x5ce2fe2a2ece18cfU, 0xe430ff010cb9cc1dU, 0x18d01211a9423027U,
  0x18d6f12df4f8b4a4U, 0x52dd4131cfad2d5U, 0x18b0277f68c631d0U, 0xdc1694fdff300211U,
  0x264bf5812fa00509U, 0x66e18b1dc331b6bcU, 0xe49c851123f70921U, 0x231cebea2ed0e2c9U,
  0xb83dbdce0cc42aeaU, 0x29fd18f29fdd2bccU, 0xeee70929eaf9d8e9U, 0x16f123ed2cfed726U,
  0xbadb06ff28ffb223U, 0xf1e22f012b7fe325U, 0x40365cda965b4bcbU, 0x2da7e621de0f1732U,
  0x535fa19fe104401U, 0xc0e30a443b07c8a2U, 0x1ab3220af70f5e1bU, 0xf0fb1aedf2481050U,
  0x82b3c08d1ef0fefU, 0x462ed0f5330124e7U, 0xc35ffd612260d4bU, 0xf2434381bdd6f32fU,
  0xf8f80c13ea3eccf3U, 0x7113f2f1ee7e821U, 0x15ee009901e94f06U, 0x8f0e16d3b1431f27U,
  0x5de503d611f5b245U, 0xf9222014efb912faU, 0xecf45c0bf17d2841U, 0x4f82fe361233f4e4U,
  0x2100eb0d23f607f6U, 0xe40301ddd9382187U, 0x2ce218fbe0043d05U, 0xfaee4d1910eddaf1U,
  0x40201d90eeece0cU, 0xffdb0914f4fe2508U, 0x2004efe03315f116U, 0xcdee1ce6c134d725U,
  0xf213e010cdeb24e1U, 0x43f3112b91abfU, 0x1f95550ce8e704faU, 0xdf311ad95e0dfc81U,
  0xf9029c0214efe597U, 0x461537f8280626d6U, 0xedfe04fcd3f5d023U, 0x62c544641e20eaceU,
  0xb84612eb2af5d622U, 0x3146fbdad22d8118U, 0x61ed16341fffd6f8U, 0xf0c05dce1436e4e5U,
  0xf5f5ead7451abd21U, 0xf32b50b93fd8bdcdU, 0x3642bedffb160297U, 0xe843e210e3fef724U,
  0x27f6e616fa24210dU, 0xbe0becf1132028fdU, 0xc7f62435420a0ab2U, 0xbb69bdec00e58cfdU,
  0xead9278f11f9b725U, 0xf94f30f08d0a1373U, 0xc4ca1cba6b395708U, 0xf3b46351193d22c6U,
  0xf9c3df19811634e2U, 0xdf0cdde3a8042f0eU, 0xcec6effcdee9419dU, 0xe120efc62cccacbaU,
  0x29592bcae8044003U, 0x27fa14face540705U, 0xf6fa28fdebc8c316U, 0x5cf8b891d81d0309U,
  0xfad8df81ddea3712U, 0xfebc2ce9e5070ef7U, 0xd8db014513dfdb2aU, 0xea8b1abdeff51934U,
  0x2c1123d916c1d8faU, 0xe7efe62af8cbe8adU, 0x4a2af0f3efddfad9U, 0xf9d1fc11223bf8a1U,
  0xebc501d205dd2ae3U, 0xdde31d065e95c0d3U, 0x27cdd8e82031f4f8U, 0x3b0b0de1eae5d8c1U,
  0xe7ff1a03c9a20612U, 0xde01a9e6f4d710faU, 0xef8e9c5241ed9b7U, 0xf93916edec29033cU,
  0xd9d97f13ba0cc306U, 0x27c8fd310e59f909U, 0xd90dc83f141df3f3U, 0xccae0fae6c8c502U,
  0xbe30cc4634052212U, 0xf71520cfcbe2fae4U, 0xec372118e60601f2U, 0x217040138ea16ddU,
  0x39de26d3427f2420U, 0xe30102e44dc72405U, 0x271137d2eddcb10eU, 0xcf3d304d9ee18d9U,
  0x7e93efd4b1137e6U, 0xcf0e2d4f374af8f3U, 0xe625160c180604f9U, 0x30d4cafe50fef8f9U,
  0x2a46f605f8fcf3dbU, 0x34c619edde24fb07U, 0x1ffb38294b269edcU, 0x32c7ecfc0cf60db4U,
  0x183728134315f92fU, 0x24c666bc0f32eac8U, 0xe604d9d609eee820U, 0x970b7ff1ec030da8U,
  0x10320cd0e3d112d1U, 0xa4115708011ec5e5U, 0xbcfb111cebe407c3U, 0x16eb3137fa11e6edU,
  0xf9f2f93447b4eaffU, 0x52ff503d3f617d9U, 0xdc03df032d771b7U, 0xdee5adf6c340301cU,
  0x90815f600fef14dU, 0xe042100ff031cbf2U, 0xef4a41b928b2c7f0U, 0xf41adc2a0b68491eU,
  0x1161be97b444acfU, 0xd4d2fb33d253c943U, 0xa10338e9fa81ff6eU, 0x27ce5a43b3b7d61aU,
  0x35f5c8d415d4f540U, 0x22dc2053162801cdU, 0x1a26ff0a9981fb34U, 0xc0cf1bf4fa2f2cd4U,
  0xd0a938132698cb04U, 0x1dcfe6fc2c130ec9U, 0x3d20b12a1f3cc1aU, 0xd901bbf5ccefdc9eU,
  0x21ddbdedf074efbU, 0xfbf0e5e90acacf49U, 0x15122f0fb0d7d9d4U, 0xf2ef19a12cbf044dU,
  0xf0120f20f11027f1U, 0x29020022c31d42a9U, 0x190432fa0526e2a4U, 0xefd4f628c3ab2333U,
  0xf0e53a33bc06330dU, 0x4f26bccb35ddc753U, 0xfa3d180800e40705U, 0x27f527a7b1c5d901U,
  0xc4217f0de1183238U, 0x1e2b1be6f4e510caU, 0x3818f6362f23dc00U, 0xaeb19050205e0cbU,
  0xb3f4dedaf92922bcU, 0xccefd2c3400dfdefU, 0x52413230f01fce6U, 0xd0838efe709fc2bU,
  0xf503ef17083a120cU, 0x5e450f0b81ede6c6U, 0x53eaeb2018efadecU, 0x2ce7f0d61d000a0dU,
  0xe8fc1b3b2d2bd627U, 0xb8f607db2af4d70cU, 0xe1f82939eeee293bU, 0xaf9f7daa7e0b11fU,
  0x29024223f5d6e165U, 0xfe0bfae1fb3d1109U, 0xa172902f9ee4819U, 0xda1513e61a1c1f2bU,
  0x518efabe5340aeaU, 0xe90804d9142c2d2bU, 0xee30e69ec4e1d1fcU, 0xd0600df137cb4c7U,
  0x19f1e42add1f0737U, 0xcf2697eeddd6c8bcU, 0xe3f72809972b2107U, 0xd4f02efe592df9e7U,
  0xd6f8f2f7d6117f10U, 0xa0ae43cbad68ee0U, 0x24f64ea7143116ecU, 0x6245dce41d320a42U,
  0x38e8412ca06998e1U, 0xbc07180712f38ad1U, 0x12cef34b12161c48U, 0x42130878e6152a2fU,
  0x12b24efefe81b902U, 0xe0f9bb9d3a0dafc1U, 0xe96fe202b52e2346U, 0xc5aef1e800fa2d1aU,
  0x22a8c4fcbc0fe068U, 0x38d7c125d327435dU, 0x15fbf50dd00f1a05U, 0x65e7e81bc7215de0U,
  0xd9bf27fdfafef9fdU, 0xec34074cc4ff31beU, 0x1af0d832f409395cU, 0xfc440a30eeab0ef3U,
  0x4ced14d4edd4bd81U, 0x163a031316efe5f7U, 0xf7206a0e33ae0442U, 0x37f517242dd2e6dbU,
  0xb234bef622ff2621U, 0x3c77f0e4b1029bc4U, 0x34f504e6cd1a47e8U, 0xca8f207dd7becU,
  0xd522cffff2672a81U, 0x40593b45f1bb4443U, 0xddf3caf3e8e300e9U, 0xceecedfbdb0c5e3cU,
  0x4d02d7172f4608e0U, 0xc4dd021e1b0a6784U, 0xe1f32eb71955ca61U, 0xc39edb9aedc4b8dcU,
  0x334c542826bd5841U, 0xffffc43cd544b0f6U, 0xdb35120081ef010bU, 0xb1fcd3381e122a49U,
  0x1011e414e9262f1bU, 0xd334d9fd36f601f5U, 0x1a172af42b11fcU, 0x392a0d34b7bcf9fbU,
  0xaf24d7e5270afbfcU, 0xf2004e06e0f13e0bU, 0xb412cba7f8d4abe3U, 0x1eeb12fab7f3f3dcU,
  0x2f10e0f0d9f900e3U, 0xec904539170722cfU, 0xf9b7ede9fb1a10adU, 0xb31ee8e230abaffcU,
  0xa121e5f81cb4cb04U, 0xdfd4c50aee4f20e4U, 0xf244acd814b33d81U, 0x27cd0d043f25b013U,
  0xf7125c1c1ce3b42fU, 0x18f20bdd5d160d57U, 0x4cdb015927342a01U, 0xf72248724ac72aceU,
  0x1114baddc064cbdcU, 0x7d800f1c822a9f9U, 0x14dbf413171aad23U, 0xf0e013e70218ddbaU,
  0xc9031f79cdb632c7U, 0xf92af40fc9dde2eeU, 0x4d21bbbf92426f7U, 0xe1cb1a1ff525fa18U,
  0xafd03fe12fb1028U, 0x4eefd123145ac403U, 0x16e3c423afea12e8U, 0xe27f22a2cc27261fU,
  0xe63f4a1ceb19b7d4U, 0xdcb9e61a1eedacbfU, 0xfbf8f3d4d8e50d52U, 0xcc442dc2afad927U,
  0xe552327ef25be14U, 0x2ed00d1a93e81b4U, 0x52e229cb0cc10d3fU, 0x20ab070d44e021feU,
  0x27ef021907eb18c3U, 0xda211a34f8e929f3U, 0xd2c33325d009c639U, 0xe6f4eade92d6d7f0U,
  0xe739df40280fb9f6U, 0x1fbe4fed9250ee2U, 0xcfacf05d0f1ece4U, 0x1f8ead9d503311eU,
  0xf708e224fe0b0a24U, 0xfacff8e7ed29f2feU, 0xfcefd91edde6f705U, 0x102a10f11e2d2502U,
  0xd20d8c1b03fbe9ceU, 0xa5de36eef6bc00ffU, 0xda161b1001f8e2f7U, 0xdf81120ddb16f4d1U,
  0xb916d031fa04a411U, 0x140d042b06d42517U, 0x12f20eeff1f2c3ebU, 0x3af513262acfb4f3U,
  0x20e8c606f9caf3ceU, 0xf51e2e2fbf1ff103U, 0x19d60d279bda08aeU, 0x5e828e2eed8c1fdU,
  0x16e318fe0812f517U, 0xc6fe15da1107d71cU, 0xcbe530ddc401c74cU, 0x32ee19ecb9c3d92aU,
  0xc481bd6138ec21baU, 0xe1e2f10df9d823e5U, 0x6dedb0efef7ced0U, 0xca002d3ad922ebfdU,
  0xaef94201187ff0ecU, 0x12bca9ea3b4bf9dcU, 0x903afece1fdacc6U, 0x2ed9fafd2e01c3f6U,
  0xf5e340db36e7fa36U, 0xf22845fb016441f6U, 0xe5b8b8878dcb241fU, 0xdcc9f0f545992912U,
  0xf319c5e655fe3ff2U, 0x3dffd6404100d319U, 0xfb020b1715fb0df0U, 0x26bc434c6b12d018U,
  0x2874dbc92a2db702U, 0x9eb22800f6a7267bU, 0xdfe3a212d8d01010U, 0xbe5a1237b449d393U,
  0x25124eb215b55459U, 0xd41f37e23118db4aU, 0xf132d4248b9d2dc6U, 0xfe2d9529b8c01a0cU,
  0xf8ae507f4ec60a02U, 0xbade9fec16f14014U, 0xbb0f2df7ccb3102dU, 0xc6e31d35c7e9bbbdU,
  0x1fd180e0f2152c0U, 0x1231ca3202dec5baU, 0x1609f0071ed35b1bU, 0xe7efb57ffc032d01U,
  0x135d1bda69ddfde2U, 0xe3f2c8a3132dd03aU, 0x5cf41bf4c52ef1fcU, 0xe016d7fde4bd12dcU,
  0x310c1cd5f6351eefU, 0x3f942e422bef4eaU, 0x50733e5e4b9cab3U, 0xcdfef7edf3ef302cU,
  0x34dc2d00dd31ec08U, 0xd8c9bde6ef7f0c27U, 0xe5f51c08f3b4b9bfU, 0x210ed120305d50cU,
  0xf3fe3be1eafd4904U, 0xe0eefbec1229e906U, 0x13e8b9f5310623caU, 0xf953d4b83b0408f8U,
  0xcd17f7f3381e33f1U, 0x113ecc101f00db3dU, 0xdd48f50cdf0740e0U, 0xf35a053be2ff20d1U,
  0x1df4ebc2052ff235U, 0xf1fc0c15f51d5823U, 0x635beff1be9d3cfU, 0xdeff2dc53549d74eU,
  0x5de9d31b1901fb11U, 0xdd30db5af6384cf0U, 0xbce604d0e2eb14ebU, 0xbffa03b3e70ce3dcU,
  0x4d223471b231b81U, 0xfdf1e126f7f4d830U, 0x6cf41785f3812bd3U, 0xb4b706dfe52a976eU,
  0xf617b267eae7f3e7U, 0x62e2c45a4f54ce44U, 0x271ab5601f1e2c14U, 0x2b3c99d042191602U,
  0xe4dbff90cba68a2U, 0xf39f2f2043170a12U, 0x2fecf409e7f44c48U, 0x488da060f05edfc9U,
  0x182cdcc40c5ddedbU, 0x3d27eb042021f7b5U, 0x1d5cc0002103aU, 0xcc83fffd19b4U,
  0xfffd2d82ffffd084U, 0x299b500026b18U, 0x1bc700000e8bU, 0xfffe8dcaffff7ccaU,
  0xfffee73d0000011eU, 0x271fffff86d5U, 0xfffe4d9e0000eb49U, 0xfffdc1b500028d4bU,
  0x6d6bfffed939U, 0x15206ffff92a9U, 0x1b850000384b8U, 0x4f31fffdb57dU,
  0x301bbfffe76eaU, 0xfffef231000051d0U, 0xffff22840000f7baU, 0xffff9425ffff45f1U,
  0xee7e0000dd41U, 0x1325600013d11U, 0x3010000024cebU, 0xffffe2ac00013643U,
  0xaff100008545U, 0xfffeb9d3ffff6366U, 0xdb2afbe2e0ebd9f4U, 0xe7d61006e3c0e423U,
  0x8a3d225d82123c9U, 0xcb3929fa2b2a2001U, 0xf3291e0818ffccdbU, 0xd82b27120f0d0707U,
  0x3b381f0f125f228U, 0x30a8f1a5d24427d9U, 0x80b02c1c2ce0649U, 0x250b01d2d1fd04d0U,
  0x23018d1634d7d507U, 0xdec5ed2700dc0d00U, 0xf49cb11930d7ec56U, 0x1fb4ddf61917360aU,
  0x47f71df7bfdf2cefU, 0xec81f7f1c90030caU, 0xcf1bee19b8def1c5U, 0xeb25fdfd3918f923U,
  0x2eec21200ab194c3U, 0x1ecbf1cf28ca1ac6U, 0x1d5afa18ceead30bU, 0xef421d55c608e30bU,
  0x17e9770885d950ecU, 0x1bed58a49a0ee17fU, 0xea6906de13e16ed9U, 0xa4491dcd4dfcab93U,
  0x1b5f2da24c714e3U, 0xe96cc3c30b9ec100U, 0xcac20f3b04063501U, 0x36df16bef12017faU,
  0xe127e6c2e44afbf8U, 0x1f630c4d5dc3ccdU, 0xd8d9e555f3d6282bU, 0x231c4083df6ef06U,
  0xe51400030301f781U, 0x2a05daf3079821efU, 0x152e08210eeaee03U, 0xbed7df12f408f90fU,
  0xdadb2200eff8ce33U, 0xcfce3dfffb0b2d13U, 0x2a20e926083fc3f5U, 0xf2d3d5e7fa1250eeU,
  0x16cdfbfff3f813e1U, 0xdb010704280622eaU, 0xfff9f51c81e319d8U, 0xe613c22edf0505d5U,
  0xfafa39e5f7bf0d04U, 0xf618141110dcf6f8U, 0x36c8e544245ec0dcU, 0x1da31221cf830f9U,
  0x8fd111921120812U, 0x26f7ed231eeff5e3U, 0x9c394f26c1e6ed21U, 0x1596d0c3f0eb31e0U,
  0x4cdbc63de919dbefU, 0x81f63311ecfdf531U, 0x1db51fcd0d15f329U, 0x11fe3cf1183428dcU,
  0xf25ec1bb0063103U, 0x840ef0bb213c1d8U, 0xe5324813d647e82eU, 0x140b9debf32fc5e8U,
  0xe0c305e649efe001U, 0xedeaf31e2211dae2U, 0xdae91419dede2df5U, 0xe815f012190934c7U,
  0x2f09124e5ce70de4U, 0xb8c4a6dea0f77f21U, 0xff3927c2cdeeeb41U, 0x2e1a272af91b0c09U,
  0xff1edf4c0b293a13U, 0xf40738ee47232ac8U, 0xf1fbb22de0edef9U, 0xe20cdbf7f6e7e5fbU,
  0xb1d10bc8eff63bd0U, 0x251fd5e92906f128U, 0x44330df4df81ed00U, 0x24823ddfd1105ceU,
  0xd3d418001d12f708U, 0x43f90132f2f3f1f5U, 0x1be613e6f44e2b0fU, 0x2101d810fb340e3fU,
  0x7bc0efdd5ecdd09U, 0x5f115c1c215e825U, 0x400eeb35b79fccb7U, 0xd21bd161bf63c1aU,
  0xe8151d46e1df1af7U, 0xffcbbfe606a1d901U, 0x32ff4ede7e9ff17U, 0xf31654f3091801e7U,
  0xd21c1d29090b0929U, 0xdafce112f276e4f8U, 0xa51eef82f0a2df7U, 0xe13aaba92a16e852U,
  0xe1e1e4150e52dda1U, 0x37dfb4171b813e16U, 0x303f1bef24d5d0dbU, 0xecce340702f9eae8U,
  0x466c5fcb1f130d3U, 0x32d4f4ee1447bdf5U, 0xe9514a30f6dbf0b9U, 0xe64ef5fdcae1eff1U,
  0x9efcae5142f34fdU, 0xecbfeb0128ecd53bU, 0x2c111c17000bdbbdU, 0x20fee80817e6d755U,
  0xa0190513fa7fdc07U, 0xc8dd4637c0e4490eU, 0x1d84c001f7dc00faU, 0xd8df2649eedd66c3U,
  0x422cfff467c846cfU, 0x50e74be20d0305feU, 0x36e3edc9c4fb31e6U, 0x2d0a3ae818dced1dU,
  0x203b01e2fad9ca21U, 0x2fc9185ec80a04afU, 0xecfb72a7fdc3f4fcU, 0x2857b7eb1b6953d6U,
  0x650a1cd17fb10c18U, 0xddd0dd48c41ebaf7U, 0xb8e3fd44fde8fdeaU, 0xdfe71dfb06c3b2ecU,
  0x274003c027cbfe3cU, 0xfb4af2721cc4f20fU, 0xecfdb03f4e06ea03U, 0xfee628fbe70fee21U,
  0xb73d262a0c748620U, 0xe7e8da460aea14a9U, 0x31c19408c2e5d57fU, 0x3a60ddd217c244e1U,
  0x7eb15ee51eb0412U, 0x13fef387025ac5d5U, 0x1d0be34653080605U, 0xcc335bf5f939eb05U,
  0xc3c94f38193ceee6U, 0x2390b9e20b64763U, 0x1cc40b2ab6d429e5U, 0xbfd631104a40d728U,
  0x593fed174dd9e737U, 0xa80e7507831ed8f3U, 0x81d7511d00bdcd36U, 0xb15eaf0d7442237U,
  0x9096eb2a0eeed6U, 0xe8bccc2ee415d9c1U, 0xb91336fab30eddfbU, 0xfb0f0cfaf4075625U,
  0xd32de306f04921d8U, 0xe41381005c360ae5U, 0xf7384104bbd3440fU, 0xe81beff22e111bf7U,
  0x45ccf507dc0bd4faU, 0x2207f903e1e4e133U, 0xd5942807e839d2dbU, 0x2c14ebbd261527e1U,
  0xed3e35de03fffcecU, 0x61f0cc4e238c28ddU, 0xf80242b3cc1823e8U, 0x231cdcf02fdb3a01U,
  0x6213e021a23100acU, 0xea17f8fd2be2e4U, 0x3f11d90ba7f9ec4bU, 0x6c101ad8d0dce605U,
  0xdfbe20a571f15bbU, 0x2ed6dbf0fffb3b02U, 0xca540c0dddc2cd04U, 0x2fa24014fcd6b1cbU,
  0xdfe41535dcb0060U, 0x22d104bc1520f681U, 0x23171be6ed18ffcaU, 0xdba14f7f5ff1bf6U,
  0x93ab6e00c44d704U, 0xd110f7f73cc6e4c0U, 0x21dfe10f29d6d65eU, 0x12ce21a629a428eeU,
  0x65e681f201efdc3eU, 0x120edef62013d370U, 0xe1b6621c7a23d019U, 0x6b21963f3babff00U,
  0xd936ea221361a729U, 0x28d4df0f65e0e419U, 0xa2ea39c522efe728U, 0xe0eff3a3ca022409U,
  0xecf71d063fe1d511U, 0xe83916d72c1e10d8U, 0xddef26f3cf17faeaU, 0x1afcd2ed0416f702U,
  0xf9b8f432be01ed1eU, 0x6eb01bbd7ea07f7U, 0x13d1fbd8062e222aU, 0x8120d3480123fceeU,
  0x122e0022f0c3a06U, 0x3d24f130211f1d3U, 0xb2f21e1bf4862b1cU, 0x21e004e207e60e37U,
  0x58d7b6c20b3b00caU, 0xb1cd0f51431f635U, 0x10342ee6dcec3a04U, 0x1bfdd953ddf9f011U,
  0x282ed60b4a0307d1U, 0xe0cf6a4581c2f824U, 0xd0071f06cc19fe0eU, 0x1801e207f2ce301eU,
  0xbf3d37393bfe1029U, 0xf438e9c1cd30d4f0U, 0x1439f7fa1f130d45U, 0x5ce81e501ddf226U,
  0xd00308191409221aU, 0xcfbe2ddf018f3f3U, 0x18ede51efceed306U, 0xab3e24dce0effef0U,
  0xf238272d0022180aU, 0x22f2fb14b6d6ffc0U, 0x1da2b0419e9ea1fU, 0x4f4cd07d61dd0beU,
  0xb310924ce34ececU, 0xa611f41a15c5f312U, 0x4bf47f15ee4fdb10U, 0xefc012c1201cebd9U,
  0xabed0f0d2fee1533U, 0x4820041102160105U, 0xf54f3ece024de82bU, 0xd7280cf3f7f7fdf5U,
  0x4fcd92f00c7e902U, 0x2ee13fe42e20a7e9U, 0x38c8e80cdb0b2704U, 0x15f9f61210043b10U,
  0x210fcbf4e001eee7U, 0x16242a12f408c8d8U, 0xe0f8b6d33afbe0b6U, 0xc46b19332231d9e3U,
  0xf60f06d9732ce7d3U, 0x6caac1f4a391d25U, 0xf57c20dd460a2f22U, 0x342cf2562cf5c800U,
  0x1dfa1d3b044bc02cU, 0x50590b11f2dcf902U, 0xb2099f7ff3e82d38U, 0xec433c2d13bf23aU,
  0xc924fed3ffe7f527U, 0xc5cf1b2b4405edffU, 0xfc0abf813bf41424U, 0xefe3f9cdbbbbfddfU,
  0x3d16de3b51d7ed0eU, 0x10d1f71b2df832fbU, 0xe5431424ed37ef05U, 0x1fada2d2f192338U,
  0xf4ec4f10dd1723c8U, 0xeb17c6000ae02f0aU, 0xff052ac4121c2e1fU, 0x94ec2bd2cb0d3f10U,
  0xfadae406d420edfbU, 0xbfe150cf7d9353eU, 0xe81d34ca139ef8e2U, 0x7d6af6dd327fe9baU,
  0x11d3433357c8fce4U, 0xba7ad10e0f0428efU, 0x4773e1e63b0a9520U, 0x353cea8fa072dc3U,
  0x3cdd210d3731a9caU, 0x54d6021beafa194dU, 0xdcae6a1dced3b125U, 0xc4a65e181f5039f9U,
  0xdf06860e3fddd5dfU, 0x17a771a6ff0b12a7U, 0x8172f4250cd135baU, 0x1408a810f924144cU,
  0xedef23ce24ef1240U, 0xd42e26fd2614e8d7U, 0x2520de280bffc492U, 0xf5305e5e43b8f7d9U,
  0xa4bf3641d402f63bU, 0x2220b8161713084cU, 0x18031592df40e9f9U, 0x35da45c0d73c0bcdU,
  0x2d173ffa1841e34cU, 0x43f6090af2c8ebfbU, 0xef0630254ef00c0bU, 0xacd3fc470c1498caU,
  0xb7e6bac1ef0ac2caU, 0xdf1d2c5a1fde5a08U, 0x375cf73dfa46d1dfU, 0xf916d6a86b07d9c8U,
  0x4ef7f5d2cec02ecfU, 0xe75925f348d0f7eeU, 0xe381b9eff7fdceeU, 0xf3e4078e28192fd7U,
  0xaab6d4f91fcbc7a5U, 0x20df398cf0007f33U, 0xdce8e240100b3d23U, 0x3bca3833caee8105U,
  0xd0fb412c230c10bfU, 0xc2ff0a041c325841U, 0x95c62d0c391e4ce1U, 0x110af2da0e160302U,
  0x2b08d22be8fa22e5U, 0xedf423e00d0cb91aU, 0x1d24d5e109f2e0fbU, 0xfd2351102e150ccdU,
  0xd70216f321d7141eU, 0xbcfc2e540231091cU, 0x11f4e6001d2827f8U, 0xd517f854fa2ff1deU,
  0xf7267f2e08f20a39U, 0xed2421e411be46f8U, 0xcdefb00310240de0U, 0xc2cffde60701eaa2U,
  0xd0bfbe5e8130edbU, 0x2bfbd90d0bfbcff3U, 0xeb2adac40ab0f03dU, 0x420f27cb10f0bdeaU,
  0xc2020ed4e82ff8e0U, 0xf3ff0ae4ee222cd3U, 0xfdefe8f317f710fdU, 0x5727113a1cd54d26U,
  0xf5d1d94eeb27e7cdU, 0xb42def33ff08160fU, 0x114167d7f8f5d133U, 0x55d17110306e3d4U,
  0x24dbecbdd61307f9U, 0xbecf10705210e01U, 0x219d4a81f2effebdU, 0x34de03e7e8441036U,
  0xfa1ef1f7b4d0fd3fU, 0xf5eb31112d15c8c7U, 0xa7f5b9d0253d1102U, 0xfdba07054e1de4c9U,
  0x15cd32e6588eeef9U, 0xd714d50ffdfae042U, 0x2647fd01d9afea12U, 0x6d40e78f9fde851U,
  0x30e1fbd204f2061dU, 0xd002f62ce324a6daU, 0xfbfd07be10edf548U, 0x5969f6f1812bb2f9U,
  0xd622d5b01ec21629U, 0xbee801b10c3ad307U, 0xef13b6ca2309ead0U, 0x141c0f30cd2dce1eU,
  0xfccbd9106710bae0U, 0x80cd3510acbc807U, 0xcefdfa4dcde1d2f8U, 0xd8531ad407dcb0c6U,
  0x9f02199e1039da04U, 0x4991f10efd4bde8U, 0x49d7f206054427f5U, 0xf37fe415fd1ae700U,
  0x2ae3be3aee3a93deU, 0x91718ec4923a5d5U, 0xf710faee190df9e8U, 0x31f3f01ae8c40c35U,
  0x11ea1f331dd30ceaU, 0x45e20c20e62df7f0U, 0xc6ec1257ff044155U, 0x600fe17ecb051603U,
  0xff02effd38b4f7f2U, 0xe881c5fec546f1b7U, 0x28ffde0a162f2ec6U, 0xde9f90607ccf6f8U,
  0x7154df2533ecfe5U, 0x16edf11a09f7061fU, 0x3fe2ddf30f3721e6U, 0xfeba22dce21278bbU,
  0x31e8f031f101df59U, 0x11e6cbaece281c0fU, 0x1eeebdfcb1eed502U, 0xcdaa2f42ee1fe0bdU,
  0xc6dbf690e90bb312U, 0x37c7d9fa14212817U, 0xaea121d0a213e1eU, 0x2d140a4400611602U,
  0xb37d64d407f10c1U, 0xbd05c7c0dc1304d8U, 0xf7bc7cd9213614f4U, 0xd80fe3f9c0d4b13cU,
  0xed0da6f6ed7f5849U, 0x6e1af1102e32444aU, 0xba03330a4bd0099fU, 0x4b4160a030a2d0aU,
  0xaa2509c953f989f3U, 0xf3fdaf25a1f1eec3U, 0xf06fb5a2435b9d5U, 0xf2def90e4803d6b6U,
  0xf70668ff2faa1401U, 0x31b816a2030b063eU, 0x3bf010f6f2481528U, 0xd8021107e10529d2U,
  0x300735070c03f612U, 0x222fe1aaf129ef8U, 0xf7f4cedf2d1c4fdU, 0xe1d91a092fedf8deU,
  0xd3d7e329dc3feffdU, 0xf73136f816f6ebccU, 0xfc3ff1002501fae5U, 0xeb13f02a03dd6e0aU,
  0x3f12c5d6dce22329U, 0x31543f103d74903U, 0xac52ca7fe1340f25U, 0x9309d3c8391af445U,
  0x1bce232813c3f3e5U, 0xf5b319f418ddbfU, 0xf3b0f5bd0347d226U, 0xd18c44e01c3a28efU,
  0xb1f8bee505d9fbdaU, 0x143de9c1c1ef3cfU, 0x84f56edb501cff3eU, 0xcf1a0013df38199fU,
  0x48e6ff70c311c6f7U, 0xefd60df7131cf71dU, 0x4a0af3141feccc07U, 0x1def04e323ccab13U,
  0xce03fe36f3edddfdU, 0x22e8dfe6eabab1faU, 0x192ad9e719250408U, 0xddf6f6fef4e80ff5U,
  0x19e60f0cf536efe7U, 0x3f7f0ae0d5173edaU, 0xfcd6ed0fef21f9e7U, 0xe9e002da23e2fed8U,
  0xe90605173d3ce927U, 0xc7ebcac600d8e61eU, 0xd9c0e6f51be7ac33U, 0x304adef734030de1U,
  0xf7f9c9ea0c29edb4U, 0xfa1725f9e19706fcU, 0x112051ca04dfd431U, 0x69c3154dcb5323f5U,
  0x10fc541051112e10U, 0xbbd8da0e7f2411aaU, 0xb4c3d5e5c4f818b6U, 0x210e2aec1d1b0f19U,
  0xc7df21262cdc0705U, 0x42d6da4318e90ee7U, 0x462b18cc1c72d6edU, 0xfdca1ce2e5200a2cU,
  0x477ff4de3fab0216U, 0xc6de5118eaf4e4e3U, 0xf0b0e39f3fe5f242U, 0x981f1c083cff07e3U,
  0xb5f8d405f307ec45U, 0xeae0204706123433U, 0xcc362ed1fc37063eU, 0xd2241c0a4316e9d3U,
  0xd5e7f9d9b00717fdU, 0xfcf94e1bb3d2f535U, 0x5f201f2f8f70ff3U, 0x4b6f1121bf914c5U,
  0xfee5f5b738f2d542U, 0xdf1f25fbc9dfd8e7U, 0xdde8f1fd12571216U, 0x21c67fd5e71609c4U,
  0xd74022f1e519ec3fU, 0x9fc202ebed26020cU, 0x2209d234e4351ae8U, 0x2c13f00bf2e30f30U,
  0xdce808d2f407cb11U, 0xf90702d10dcec726U, 0xef2f0320f5d6071eU, 0x2cb022d2f2e005fbU,
  0xeeae0e3c0737f9e8U, 0x46f9d72727090b0cU, 0x63f40330a13ffd3U, 0xe4aee40303fd0ce6U,
  0x728183d7fcf09f7U, 0x51981e14e7250b15U, 0x3843a932fbd21b06U, 0xbe81bf14127f7e5U,
  0x4fa0f352fcae6eeU, 0x42b542bfff4d3c6U, 0x21041a01be00d3cfU, 0xe1e4f230499fef39U,
  0x28c8bace5e0e1ff2U, 0xb0cfd312f2061b16U, 0x9efc88f4cf08cdU, 0x33c1f8c5e5fdfbf2U,
  0x51e2bc81b6e021f1U, 0x309ca9530abb318U, 0x2c02f2e415ebe7f1U, 0xf1700ef33cf312c5U,
  0x3ab83c26f2ebd287U, 0xfb1204abded118e2U, 0xd652a7e7a842131dU, 0x8ff31bfaffefd99dU,
  0x936cbfbc9fefbb7U, 0x19fd0dfffdf4ea1aU, 0xee2017fe2034fbfaU, 0x1d3f5821b11b29e2U,
  0xecba1d0eb5f73fc9U, 0x1e0beb0601ecf352U, 0xe9f8a72422cf2481U, 0x15f8b803fc0b1359U,
  0x73c4951f71cf92aU, 0x491408f8baf400c0U, 0xbdbd2323f70bf1f9U, 0x28014f3bf815ef1eU,
  0xfe1ef854d8fc0dfbU, 0xd3fbd6d6ece62129U, 0xf9d8fc43f6dd9e00U, 0xd1102ae412140b09U,
  0xe53725073becf57fU, 0xd5cf14e2dcdee6e5U, 0x15f0dc08edae502bU, 0xee1fa03ecbe07dbU,
  0xcf050dea030f3ebdU, 0xcd0dc7c7e40bfafaU, 0x10f55254e6fb121cU, 0x3ed1e517ceabec06U,
  0x12b9deb75a5ae90eU, 0xf6d8b72aadfe1c06U, 0x51d4e714e47fd300U, 0x4c04482a1bd7e709U,
  0xb5f0abed62050ac4U, 0x3624b9ab14f72d13U, 0xf423f542ce2b0a0bU, 0x1d273a38e856ebbcU,
  0x2b38b1c82dd2e641U, 0xb0e93f28e4e85d2cU, 0x26dac3eaf93c47e3U, 0x21d100082508fcf9U,
  0xf627185b11f727f5U, 0x131e1016540bcc27U, 0x1b400a14dac8bed8U, 0xca0339c20342ef15U,
  0xf93cf7270bd0f438U, 0x371bbdf73c2b2ae4U, 0x26d62213e4f00515U, 0x43ce81121c353815U,
  0xd6bc35cbdc2d194eU, 0xc0cac1e2dceb220aU, 0xfe9d6b0d52fdeeb7U, 0xd6eed514d12bc8b1U,
  0x13d8ec12eccce5fdU, 0x17f967e8f311e422U, 0x1d33e5d60d9c0db3U, 0xe681f7dff612ec1dU,
  0xed0bf39ed345fc30U, 0x35fef64bf608fdbfU, 0x9144b5a43725eee0U, 0xad0efd0b9544c1bU,
  0xeddefb173614dc2fU, 0x3f2120720ddfcceU, 0x237f94d4ca58f60eU, 0x11a0bcceb3271f08U,
  0x66010bd131dd2410U, 0x5e1f6aef1f6ec2fU, 0x4cc9b7a0fc253b17U, 0x16571a1505a4bf42U,
  0x42e9e7f5132cb7b6U, 0xc31b040fd82b12f5U, 0x17d21dd0dfa317e2U, 0x5b0e7f505f5191aU,
  0x6d3e07ff57f1d307U, 0xa040cb303df00343U, 0x5225e8f11ce0fce8U, 0xef5e0fb6d9162cd2U,
  0xed33729be821313aU, 0xb1e215f2faede527U, 0xf21bedfc1608e92fU, 0xb503fcf5b413e527U,
  0xe0bff8dbfa051c20U, 0x4e2917e3207f14fbU, 0xf4e51f16f2e6f3e1U, 0x26213f060718e0ffU,
  0xda05d34254131581U, 0xfce9f638090f4e04U, 0xaa33aac200cb0628U, 0xe1c5d8e71555f8e8U,
  0xd93e35cbcddbeb2cU, 0xfa29cc1afb01f820U, 0x35e3681ee0f5f72aU, 0x8135eb02efd8eda4U,
  0x7b7c908a2e0f7e5U, 0x450b1d00081fcb09U, 0x23d936c2b9bbf7ecU, 0x217fae7021a3cafU,
